NE 100
▁( 100
▁) 100
▁t 100
in 100
▁. 100
er 100
▁s 100
on 100
re 100
▁a 100
at 100
▁, 100
LI 100
▁c 100
LINE 100
NEW 100
▁NEW 100
DE 100
en 100
▁= 100
▁i 100
or 100
▁th 100
el 100
es 100
et 100
▁p 100
al 100
▁f 100
▁I 100
▁' 100
▁d 100
le 100
NT 100
DENT 100
▁" 100
ou 100
▁n 100
▁; 100
ion 100
ing 100
▁re 100
an 100
st 100
ct 100
it 100
▁w 100
ar 100
▁m 100
▁: 100
▁in 100
▁b 100
▁the 100
▁sel 100
ro 100
ed 100
▁self 100
ic 100
am 100
▁g 100
▁} 100
▁{ 100
se 100
▁l 100
ent 100
ex 100
▁to 100
ur 100
ss 100
od 100
▁o 100
▁DE 100
ut 100
▁IN 100
▁INDENT 100
▁DEDENT 100
▁v 100
id 100
▁h 100
ce 100
is 100
▁get 100
tr 100
nd 100
il 100
▁S 100
▁[ 100
▁_ 100
om 100
ate 100
ul 100
▁is 100
ot 100
▁u 100
▁] 100
ame 100
pt 100
ue 100
urn 100
est 100
▁if 100
▁ret 100
ef 100
▁T 100
ect 100
ad 100
▁return 100
ch 100
ag 100
em 100
ol 100
ow 100
la 100
qu 100
ck 100
ub 100
ew 100
lic 100
▁y 100
▁1 100
pe 100
▁for 100
ert 100
▁< 100
ist 100
ve 100
▁con 100
as 100
im 100
▁def 100
▁and 100
ble 100
um 100
nt 100
ig 100
▁st 100
▁it 100
▁0 100
▁this 100
▁you 100
ra 100
▁ex 100
ation 100
tring 100
ode 100
▁A 100
pp 100
▁C 100
▁of 100
ile 100
th 100
▁pub 100
ke 100
▁- 100
lo 100
ri 100
▁public 100
ext 100
▁+ 100
un 100
ata 100
▁new 100
ess 100
▁e 100
age 100
ith 100
▁N 100
▁pro 100
▁on 100
out 100
alue 100
ption 100
▁r 100
ype 100
ver 100
▁wh 100
ction 100
ult 100
▁ass 100
end 100
ly 100
▁P 100
ter 100
▁not 100
oo 100
lass 100
▁j 100
ject 100
▁set 100
▁/ 100
▁F 100
ser 100
▁an 100
▁assert 100
Ex 100
▁res 100
able 100
▁> 100
ec 100
▁ch 100
dd 100
▁tr 100
and 100
▁that 100
if 100
▁M 100
one 100
▁String 100
iz 100
▁Th 100
▁with 100
ort 100
▁2 100
ers 100
▁int 100
ull 100
▁el 100
▁do 100
ir 100
av 100
put 100
); 100
ath 100
ment 100
▁be 100
▁com 100
ay 100
ror 100
ld 100
int 100
▁al 100
▁add 100
art 100
ang 100
ap 100
rom 100
▁H 100
▁test 100
▁D 100
▁lo 100
▁B 100
▁R 100
▁% 100
bject 100
ave 100
▁ar 100
row 100
▁can 100
ception 100
▁cont 100
▁or 100
ack 100
Con 100
▁== 100
oid 100
ere 100
▁O 100
00 100
ime 100
ase 100
eth 100
ind 100
ine 100
▁as 100
▁name 100
ple 100
St 100
▁data 100
qual 100
▁void 100
ain 100
▁value 100
our 100
all 100
▁app 100
ore 100
pl 100
▁L 100
ould 100
ht 100
▁null 100
=" 100
li 100
▁sh 100
ild 100
Exception 100
▁class 100
() 100
iv 100
▁* 100
▁have 100
▁J 100
cri 100
▁id 100
quest 100
get 100
op 100
In 100
ork 100
▁im 100
ure 100
ant 100
▁None 100
name 100
▁x 100
us 100
key 100
eld 100
ize 100
ield 100
▁E 100
▁my 100
act 100
ep 100
pon 100
▁from 100
▁but 100
unction 100
▁us 100
orm 100
▁W 100
ray 100
ance 100
Name 100
atch 100
▁out 100
ity 100
con 100
per 100
▁par 100
ethod 100
ach 100
alse 100
os 100
ire 100
▁! 100
▁at 100
ite 100
inal 100
▁code 100
▁else 100
ord 100
ust 100
ead 100
ill 100
ib 100
▁cre 100
ava 100
ab 100
▁k 100
▁U 100
cess 100
Id 100
ice 100
▁su 100
ial 100
are 100
▁ma 100
▁3 100
gs 100
ount 100
fer 100
▁try 100
oc 100
rou 100
cript 100
ost 100
▁result 100
fig 100
▁use 100
▁file 100
Equal 100
▁@ 100
▁G 100
▁mod 100
ory 100
vent 100
ery 100
▁your 100
eck 100
List 100
rue 100
__ 100
ight 100
▁by 100
iew 100
eg 100
▁key 100
▁function 100
uild 100
▁are 100
stance 100
Pro 100
ive 100
port 100
rror 100
ide 100
ail 100
tp 100
ress 100
▁final 100
Type 100
▁work 100
ected 100
▁throw 100
▁list 100
▁er 100
▁se 100
▁en 100
set 100
▁type 100
▁assertEqual 100
low 100
▁The 100
▁user 100
ource 100
essage 100
▁stat 100
▁using 100
ule 100
ange 100
). 100
▁V 100
ies 100
▁__ 100
eb 100
▁li 100
com 100
ator 100
▁val 100
ition 100
ml 100
▁var 100
ip 100
▁som 100
▁has 100
ans 100
fo 100
yth 100
▁exp 100
ument 100
ated 100
ener 100
▁len 100
vice 100
eed 100
▁create 100
Error 100
ock 100
Cont 100
▁wr 100
ong 100
▁\ 100
ass 100
▁object 100
▁Y 100
str 100
▁col 100
▁like 100
ook 100
val 100
ponse 100
▁ser 100
pd 100
String 100
▁path 100
lean 100
▁!= 100
ast 100
read 100
▁pre 100
▁error 100
ll 100
form 100
rint 100
▁form 100
▁will 100
▁In 100
▁method 100
', 100
To 100
ault 100
▁want 100
der 100
▁True 100
▁fil 100
roup 100
▁param 100
.0 100
sh 100
▁ht 100
url 100
Res 100
lay 100
ich 100
ber 100
ute 100
uf 100
ink 100
▁log 100
▁am 100
▁ind 100
Ch 100
▁4 100
▁when 100
ix 100
▁un 100
▁start 100
ython 100
ound 100
▁all 100
▁num 100
lient 100
urre 100
▁need 100
ues 100
▁run 100
og 100
pert 100
▁str 100
ug 100
▁$ 100
ection 100
pro 100
▁read 100
gth 100
Value 100
so 100
(" 100
▁cl 100
ary 100
oolean 100
▁request 100
ove 100
ON 100
ER 100
▁append 100
", 100
"> 100
ther 100
to 100
ement 100
</ 100
ry 100
▁call 100
cal 100
ample 100
▁& 100
▁check 100
▁which 100
ard 100
ign 100
▁context 100
▁so 100
▁text 100
irst 100
up 100
ream 100
ens 100
file 100
▁time 100
urrent 100
ting 100
uct 100
▁You 100
trib 100
▁line 100
Ser 100
ict 100
(' 100
own 100
ally 100
▁sub 100
js 100
oint 100
▁field 100
▁5 100
riv 100
app 100
ask 100
ud 100
▁ac 100
ence 100
Data 100
ace 100
▁true 100
ey 100
▁other 100
▁? 100
umn 100
▁should 100
▁array 100
▁print 100
ise 100
ob 100
▁throws 100
ton 100
▁any 100
▁would 100
res 100
type 100
yst 100
tem 100
ST 100
Key 100
ac 100
▁False 100
▁one 100
-- 100
▁false 100
pec 100
▁ab 100
▁me 100
rray 100
ystem 100
▁item 100
▁qu 100
▁ra 100
// 100
lock 100
▁string 100
AT 100
rivate 100
ax 100
▁boolean 100
▁then 100
▁How 100
▁some 100
▁Wh 100
pdate 100
uilder 100
▁Con 100
ph 100
▁index 100
load 100
▁le 100
▁input 100
data 100
par 100
Com 100
01 100
te 100
▁fol 100
ersion 100
▁static 100
▁pass 100
▁sc 100
▁http 100
ak 100
▁how 100
▁private 100
▁there 100
▁does 100
Re 100
Set 100
▁element 100
▁write 100
▁import 100
Qu 100
File 100
▁dis 100
Int 100
▁rem 100
arent 100
▁comm 100
▁This 100
▁way 100
cept 100
▁op 100
ell 100
path 100
lick 100
▁size 100
▁| 100
Class 100
▁args 100
▁url 100
:// 100
▁rep 100
By 100
▁// 100
irect 100
lement 100
▁end 100
▁ent 100
ache 100
En 100
ames 100
ken 100
▁find 100
not 100
▁inst 100
div 100
▁config 100
▁output 100
anag 100
rame 100
uth 100
yn 100
cl 100
arch 100
▁node 100
▁</ 100
▁If 100
▁event 100
arget 100
LE 100
init 100
blem 100
▁Object 100
text 100
list 100
▁doc 100
▁comp 100
oin 100
▁what 100
▁super 100
▁case 100
▁first 100
use 100
tern 100
ages 100
▁state 100
ree 100
ff 100
▁response 100
args 100
▁only 100
(); 100
enc 100
andl 100
▁instance 100
View 100
ession 100
.. 100
▁java 100
▁del 100
Th 100
perty 100
▁load 100
yp 100
eader 100
lication 100
eight 100
▁Test 100
▁just 100
sg 100
▁values 100
▁format 100
▁# 100
▁conn 100
bo 100
▁default 100
▁ob 100
▁current 100
ev 100
back 100
▁ro 100
▁os 100
▁X 100
Element 100
mod 100
RE 100
▁hel 100
▁problem 100
ner 100
IN 100
ution 100
▁Exception 100
Par 100
py 100
State 100
lace 100
led 100
▁cls 100
▁follow 100
▁length 100
▁message 100
▁List 100
sp 100
▁reg 100
Field 100
▁Int 100
▁Java 100
ifi 100
Object 100
iter 100
ning 100
▁ST 100
.1 100
▁arg 100
ody 100
▁make 100
add 100
▁look 100
son 100
▁em 100
▁vari 100
ponent 100
▁module 100
nder 100
▁act 100
▁exec 100
oth 100
▁no 100
gr 100
ete 100
▁example 100
tribute 100
▁z 100
uffer 100
▁contain 100
▁St 100
▁put 100
Col 100
fter 100
▁page 100
anager 100
ible 100
erm 100
ID 100
▁model 100
▁sim 100
les 100
ger 100
ptions 100
ge 100
Map 100
▁server 100
At 100
play 100
Context 100
▁10 100
idth 100
▁des 100
Im 100
▁raise 100
indow 100
▁assertEquals 100
Time 100
▁same 100
▁content 100
▁client 100
ify 100
Text 100
ific 100
ME 100
sel 100
▁part 100
value 100
Mod 100
OR 100
cre 100
ual 100
ause 100
roll 100
count 100
quire 100
word 100
▁6 100
▁np 100
Test 100
▁version 100
▁equal 100
loat 100
Query 100
ool 100
▁It 100
uration 100
▁** 100
sw 100
▁sec 100
ndex 100
andler 100
▁row 100
▁was 100
ouble 100
▁help 100
▁long 100
▁File 100
ML 100
▁pl 100
ft 100
), 100
▁max 100
▁up 100
▁dif 100
rc 100
lose 100
ash 100
eger 100
▁prot 100
actory 100
osition 100
abel 100
Config 100
Node 100
▁expected 100
▁here 100
▁match 100
work 100
ank 100
": 100
▁rec 100
now 100
▁into 100
▁go 100
base 100
class 100
iss 100
▁update 100
log 100
▁8 100
ations 100
▁next 100
▁Pro 100
▁catch 100
▁dec 100
▁sol 100
Path 100
ref 100
▁&& 100
▁while 100
▁trans 100
ick 100
▁char 100
ccess 100
▁group 100
vert 100
ake 100
plit 100
Service 100
til 100
gle 100
▁+= 100
▁ext 100
itle 100
▁spec 100
▁init 100
ape 100
▁count 100
▁Ch 100
▁Ex 100
code 100
Stream 100
Event 100
▁sp 100
ie 100
test 100
ond 100
▁kw 100
▁inter 100
Message 100
▁So 100
gh 100
io 100
ces 100
▁trying 100
Request 100
▁don 100
▁STR 100
pty 100
▁column 100
tes 100
▁ad 100
▁tem 100
▁image 100
ates 100
▁could 100
▁gener 100
▁parent 100
▁project 100
▁tw 100
ething 100
ature 100
▁ins 100
oop 100
plate 100
ypes 100
▁cal 100
ider 100
utton 100
▁following 100
): 100
Builder 100
Of 100
▁obj 100
▁show 100
AR 100
▁back 100
ector 100
min 100
▁sy 100
col 100
lection 100
▁q 100
▁build 100
▁target 100
▁query 100
▁except 100
ever 100
▁msg 100
ename 100
▁An 100
▁open 100
▁more 100
ope 100
▁know 100
dir 100
Item 100
▁tag 100
roid 100
Manager 100
▁Not 100
▁number 100
eter 100
plement 100
▁each 100
ous 100
▁last 100
reak 100
▁source 100
efore 100
efault 100
AL 100
NEWLINE 100
▁also 100
Index 100
▁STRNEWLINE 100
▁process 100
opy 100
▁table 100
Util 100
Not 100
lib 100
ions 100
▁document 100
▁ap 100
clud 100
▁web 100
▁0. 100
eta 100
Info 100
ia 100
ines 100
▁remove 100
line 100
atus 100
▁JS 100
Size 100
cont 100
▁System 100
000 100
▁const 100
▁per 100
▁local 100
IT 100
▁differ 100
Count 100
Array 100
▁map 100
ark 100
▁where 100
▁see 100
verr 100
12 100
▁My 100
pport 100
▁bec 100
red 100
ized 100
32 100
of 100
▁min 100
da 100
ating 100
▁after 100
▁Array 100
▁view 100
tings 100
SS 100
fil 100
▁send 100
▁change 100
string 100
ebug 100
▁elif 100
True 100
instance 100
try 100
Code 100
▁python 100
▁something 100
avas 100
▁filter 100
▁equals 100
ish 100
ative 100
avascript 100
▁tri 100
valid 100
▁require 100
andom 100
▁info 100
user 100
lob 100
▁script 100
▁join 100
raph 100
orre 100
▁objects 100
▁++ 100
▁break 100
ices 100
nel 100
ength 100
Instance 100
▁float 100
▁Python 100
▁we 100
ustom 100
▁child 100
▁Com 100
ulti 100
Param 100
▁command 100
▁kwargs 100
ION 100
vers 100
10 100
chem 100
ov 100
util 100
▁status 100
▁files 100
struct 100
▁iter 100
▁parse 100
method 100
▁action 100
▁mock 100
Out 100
its 100
▁And 100
▁two 100
... 100
umber 100
CT 100
▁button 100
yle 100
ql 100
') 100
ps 100
▁them 100
▁protected 100
▁But 100
▁dep 100
Result 100
vir 100
▁Here 100
sc 100
perties 100
User 100
oogle 100
Factory 100
java 100
▁params 100
▁chang 100
Un 100
▁7 100
▁application 100
▁direct 100
gram 100
Ar 100
andle 100
▁loop 100
On 100
Null 100
verride 100
pr 100
ression 100
▁click 100
Form 100
idd 100
▁valid 100
▁json 100
") 100
attr 100
▁order 100
▁variable 100
point 100
info 100
▁link 100
▁IO 100
▁Un 100
let 100
▁pack 100
▁K 100
▁byte 100
cription 100
cod 100
Val 100
ular 100
▁second 100
▁tra 100
▁lib 100
'] 100
▁src 100
md 100
▁because 100
SE 100
input 100
ables 100
▁date 100
▁getS 100
▁display 100
raw 100
itor 100
▁HT 100
map 100
▁root 100
▁close 100
▁exist 100
orrect 100
Listener 100
gg 100
Add 100
▁post 100
unc 100
▁ns 100
▁off 100
▁bas 100
▁host 100
RL 100
ont 100
rans 100
▁foo 100
item 100
▁db 100
ays 100
▁de 100
query 100
be 100
CE 100
ome 100
ateg 100
html 100
dict 100
▁bel 100
▁quest 100
script 100
▁search 100
▁used 100
ayout 100
▁bet 100
"); 100
▁found 100
lease 100
ely 100
▁org 100
▁split 100
by 100
▁working 100
ox 100
▁.. 100
---- 100
▁loc 100
▁fail 100
▁dict 100
All 100
▁works 100
▁For 100
▁man 100
ivity 100
size 100
vel 100
▁Is 100
▁block 100
lag 100
urs 100
http 100
RO 100
▁tried 100
ueue 100
▁session 100
action 100
▁implement 100
ait 100
ocket 100
▁task 100
oss 100
▁double 100
▁iss 100
1, 100
64 100
▁assertTrue 100
▁Col 100
▁access 100
ugin 100
sole 100
For 100
▁toString 100
▁tim 100
With 100
ose 100
▁thread 100
▁different 100
▁ed 100
▁ever 100
▁base 100
▁main 100
Fil 100
mp 100
▁Type 100
▁exception 100
unt 100
ined 100
odes 100
omain 100
nection 100
mit 100
stra 100
▁Integer 100
pper 100
▁port 100
PI 100
rec 100
annel 100
▁doesn 100
Sh 100
▁dat 100
▁9 100
other 100
utes 100
enu 100
▁over 100
Response 100
ote 100
time 100
Model 100
▁cr 100
face 100
UT 100
PE 100
du 100
▁point 100
▁token 100
App 100
eature 100
ics 100
▁auth 100
lear 100
2. 100
▁ref 100
reg 100
Loc 100
rol 100
▁100 100
▁IOException 100
ync 100
abled 100
▁right 100
eaders 100
AN 100
▁range 100
▁now 100
attern 100
▁connection 100
tx 100
▁html 100
▁mem 100
': 100
index 100
Or 100
mand 100
▁options 100
ister 100
▁about 100
ln 100
▁}); 100
▁convert 100
▁answ 100
▁label 100
▁Res 100
▁|| 100
ari 100
Property 100
px 100
round 100
▁Im 100
▁getP 100
Handler 100
▁solution 100
▁isinstance 100
▁sort 100
box 100
my 100
▁Q 100
over 100
iled 100
Des 100
sum 100
for 100
▁oper 100
self 100
net 100
Ref 100
ments 100
▁before 100
eters 100
▁debug 100
ension 100
ear 100
evel 100
▁Re 100
▁may 100
ocument 100
▁store 100
▁question 100
▁What 100
▁Value 100
▁prov 100
ical 100
ee 100
Inter 100
▁Set 100
Date 100
▁instead 100
▁than 100
Input 100
20 100
▁Ser 100
ializ 100
▁Get 100
▁contains 100
▁entry 100
▁rel 100
▁names 100
▁width 100
▁position 100
▁... 100
Group 100
▁refer 100
field 100
▁When 100
▁old 100
ors 100
duct 100
oad 100
ourse 100
▁program 100
▁To 100
▁replace 100
Method 100
1. 100
imit 100
rite 100
▁select 100
▁conf 100
▁extr 100
▁hash 100
▁Map 100
▁av 100
oot 100
▁below 100
An 100
roller 100
▁Data 100
function 100
ade 100
rary 100
Content 100
▁its 100
ient 100
▁stream 100
view 100
ttp 100
▁top 100
▁Thank 100
▁copy 100
▁service 100
▁net 100
▁results 100
new 100
group 100
ically 100
▁gr 100
older 100
▁argument 100
▁window 100
rowser 100
▁execute 100
▁12 100
▁body 100
loc 100
▁pr 100
And 100
etail 100
▁items 100
▁console 100
ually 100
arg 100
af 100
Act 100
From 100
▁under 100
Action 100
ater 100
▁correct 100
▁seem 100
(). 100
ified 100
check 100
▁py 100
viron 100
0, 100
sub 100
Exp 100
▁https 100
▁poss 100
▁another 100
td 100
rag 100
structor 100
fix 100
▁extend 100
▁orig 100
Table 100
AME 100
▁they 100
ings 100
Log 100
▁delete 100
RI 100
arning 100
lobal 100
▁sw 100
▁filename 100
ready 100
clude 100
Client 100
state 100
▁ev 100
▁vis 100
Sel 100
ground 100
▁save 100
und 100
▁xml 100
ese 100
▁component 100
▁think 100
Script 100
ush 100
0000 100
▁option 100
▁Al 100
▁random 100
OM 100
▁En 100
ince 100
Status 100
], 100
▁title 100
sing 100
lab 100
ET 100
▁answer 100
pace 100
▁ver 100
igh 100
▁On 100
dition 100
order 100
AG 100
)) 100
Buffer 100
▁getD 100
▁Class 100
11 100
QL 100
▁div 100
▁down 100
Rep 100
db 100
▁giv 100
chema 100
▁lang 100
▁multi 100
ifier 100
untime 100
we 100
this 100
Em 100
config 100
ron 100
== 100
gn 100
tributes 100
▁aut 100
rough 100
cc 100
▁At 100
ules 100
▁attr 100
▁Can 100
▁pop 100
▁simple 100
▁property 100
▁Ass 100
river 100
df 100
ower 100
Output 100
▁sure 100
[' 100
▁render 100
etad 100
UL 100
vo 100
▁fields 100
uster 100
AB 100
▁without 100
▁fix 100
module 100
3. 100
End 100
▁must 100
▁ag 100
amp 100
▁height 100
▁allow 100
ises 100
ars 100
etadata 100
json 100
▁-- 100
▁inside 100
jax 100
▁1. 100
Trans 100
▁issue 100
ternal 100
ATE 100
▁template 100
▁By 100
equal 100
ailed 100
pack 100
▁ArrayList 100
▁handle 100
ume 100
Reg 100
▁elements 100
ren 100
▁sys 100
param 100
ility 100
▁called 100
xy 100
▁As 100
ious 100
bers 100
version 100
old 100
▁android 100
ources 100
=' 100
▁df 100
1" 100
▁clear 100
▁word 100
▁possible 100
si 100
ingle 100
with 100
▁database 100
'). 100
▁User 100
ean 100
itch 100
▁pos 100
▁initial 100
▁dir 100
-0 100
FI 100
ainer 100
OL 100
▁created 100
print 100
ason 100
wh 100
▁dist 100
▁through 100
▁getC 100
array 100
uck 100
▁frame 100
Al 100
▁sign 100
button 100
anel 100
start 100
▁able 100
ful 100
ification 100
▁instanceof 100
▁JSON 100
ialog 100
Su 100
orage 100
ched 100
Utils 100
sed 100
Sc 100
from 100
su 100
▁support 100
air 100
reate 100
Load 100
Child 100
ty 100
ING 100
ything 100
Address 100
34 100
▁getName 100
iddle 100
▁javascript 100
▁logger 100
length 100
25 100
▁custom 100
▁been 100
uid 100
riter 100
▁empty 100
▁cache 100
TE 100
▁Override 100
▁resource 100
mb 100
etime 100
Line 100
▁address 100
▁color 100
▁depend 100
▁HTML 100
label 100
pos 100
ough 100
▁browser 100
apt 100
ocol 100
▁why 100
▁these 100
▁password 100
▁getting 100
obj 100
Format 100
Attribute 100
resh 100
▁builder 100
▁cmd 100
▁left 100
▁play 100
lect 100
Source 100
error 100
OG 100
▁doing 100
▁every 100
▁encod 100
▁API 100
▁did 100
amb 100
▁lines 100
▁offset 100
host 100
olic 100
parse 100
Up 100
frame 100
tual 100
Token 100
ffset 100
▁App 100
▁Cont 100
▁RE 100
ets 100
formation 100
▁dest 100
99 100
pre 100
▁record 100
exp 100
create 100
idget 100
▁header 100
cel 100
▁Thanks 100
utor 100
change 100
▁ph 100
▁contin 100
cs 100
Column 100
▁bit 100
ntity 100
ween 100
▁above 100
▁tot 100
2, 100
▁bar 100
▁However 100
rl 100
vious 100
Arg 100
▁ValueError 100
▁running 100
result 100
▁"" 100
▁job 100
jang 100
erson 100
ants 100
vider 100
que 100
itt 100
▁attribute 100
allback 100
▁api 100
▁keys 100
Component 100
▁buffer 100
▁register 100
dis 100
▁ax 100
▁already 100
xml 100
Entry 100
iction 100
▁settings 100
CH 100
Start 100
uple 100
▁course 100
UE 100
That 100
model 100
ursor 100
▁charact 100
Is 100
"></ 100
▁location 100
org 100
▁install 100
▁Sh 100
Tra 100
etch 100
Filter 100
▁Error 100
api 100
ency 100
jango 100
Impl 100
request 100
Row 100
'); 100
flow 100
Ra 100
Rec 100
▁Log 100
▁0.0 100
▁20 100
Frame 100
eff 100
▁wrong 100
▁uid 100
▁package 100
▁getM 100
_1 100
▁ow 100
Image 100
leg 100
ensor 100
▁errors 100
50 100
serv 100
▁Node 100
Task 100
rop 100
utable 100
etr 100
▁insert 100
▁201 100
▁Mod 100
aving 100
201 100
ambda 100
▁parameter 100
▁sep 100
▁headers 100
▁parser 100
click 100
▁level 100
Oper 100
stand 100
Version 100
▁Any 100
▁still 100
loy 100
Hel 100
ern 100
rix 100
gine 100
▁buf 100
Se 100
essages 100
enter 100
Resource 100
Connection 100
ms 100
[0 100
▁let 100
▁>= 100
imal 100
Tag 100
object 100
-1 100
Layout 100
▁sk 100
Button 100
ging 100
▁stop 100
▁sum 100
OT 100
site 100
▁shape 100
Str 100
ared 100
▁Key 100
▁both 100
▁even 100
▁assertThat 100
keep 100
Number 100
▁domain 100
Check 100
▁Date 100
▁got 100
As 100
ision 100
▁std 100
▁very 100
▁dtype 100
Configuration 100
▁success 100
body 100
Ed 100
▁total 100
pen 100
urity 100
date 100
option 100
▁opt 100
▁cannot 100
rap 100
ategory 100
ynch 100
▁style 100
Get 100
lip 100
▁multiple 100
▁system 100
24 100
▁Assert 100
YPE 100
▁mode 100
▁ide 100
▁required 100
▁err 100
inary 100
▁methods 100
unk 100
Empty 100
TP 100
link 100
NAME 100
nown 100
issing 100
▁done 100
atrix 100
content 100
▁Add 100
olicy 100
ormal 100
Thread 100
▁There 100
"). 100
▁URL 100
ynchron 100
▁step 100
▁callback 100
cale 100
table 100
▁-> 100
▁co 100
Bytes 100
▁rout 100
▁bytes 100
AX 100
ieve 100
▁between 100
AD 100
Server 100
Sub 100
ities 100
ouse 100
▁email 100
▁Par 100
▁prefix 100
gnore 100
▁req 100
▁being 100
process 100
▁mark 100
ced 100
▁gu 100
▁sm 100
▁resol 100
▁environ 100
▁returns 100
any 100
▁wait 100
▁library 100
legal 100
▁Or 100
▁cur 100
▁compl 100
inition 100
▁struct 100
▁continue 100
▁temp 100
▁util 100
Block 100
reen 100
▁}, 100
etails 100
▁eas 100
ring 100
▁changed 100
▁fine 100
her 100
ideo 100
▁No 100
▁jQuery 100
80 100
llegal 100
quence 100
Del 100
){ 100
▁flag 100
▁might 100
rid 100
ways 100
▁original 100
▁reason 100
imple 100
server 100
ples 100
Dir 100
▁et 100
▁env 100
]. 100
▁200 100
▁google 100
criptor 100
Case 100
arn 100
OST 100
16 100
▁such 100
▁plugin 100
bar 100
▁seems 100
cat 100
56 100
▁global 100
Dis 100
30 100
Def 100
▁mak 100
Dec 100
▁red 100
▁func 100
undle 100
Argument 100
▁Http 100
▁description 100
ById 100
Url 100
LO 100
▁keep 100
▁full 100
ested 100
▁Then 100
▁ctx 100
▁eval 100
▁single 100
Provider 100
▁feature 100
inter 100
run 100
edia 100
▁sugg 100
default 100
Ret 100
comp 100
uage 100
▁properties 100
▁really 100
Activity 100
▁tab 100
ret 100
osit 100
▁""" 100
▁sb 100
python 100
lat 100
node 100
▁happ 100
▁directory 100
sl 100
▁term 100
ential 100
▁upd 100
FA 100
rapper 100
ole 100
▁tx 100
ases 100
ns 100
ND 100
▁common 100
Names 100
ED 100
ynam 100
Color 100
ailable 100
▁understand 100
▁Hash 100
no 100
Process 100
▁classes 100
cul 100
▁LOG 100
▁actual 100
▁bind 100
▁reference 100
uri 100
ng 100
CK 100
page 100
▁JavaScript 100
▁username 100
format 100
lable 100
▁aw 100
False 100
▁variables 100
▁non 100
▁ID 100
resent 100
▁pattern 100
assword 100
▁mu 100
▁parameters 100
▁real 100
pped 100
▁assign 100
▁sn 100
▁exists 100
ission 100
▁specific 100
▁<= 100
▁Collection 100
▁sl 100
▁1.0 100
▁Now 100
rep 100
▁rece 100
▁View 100
▁since 100
▁well 100
▁println 100
Exec 100
Raises 100
▁draw 100
ys 100
estamp 100
▁account 100
▁network 100
ences 100
▁=> 100
▁Psi 100
▁getB 100
types 100
pping 100
▁device 100
▁handler 100
event 100
AP 100
▁datetime 100
Cache 100
▁tool 100
olume 100
inish 100
del 100
vlet 100
▁2. 100
Mapp 100
ward 100
gress 100
3, 100
▁generate 100
▁assertRaises 100
shot 100
▁Text 100
▁switch 100
▁mon 100
▁timeout 100
▁Illegal 100
▁finally 100
entic 100
mt 100
ender 100
Auth 100
** 100
orld 100
▁always 100
span 100
Length 100
Reader 100
filter 100
[] 100
▁added 100
doc 100
az 100
Header 100
▁place 100
▁Z 100
▁rest 100
ins 100
num 100
▁abs 100
▁lambda 100
notation 100
▁ip 100
▁better 100
ULT 100
▁stack 100
Label 100
response 100
erence 100
▁perform 100
JS 100
▁Do 100
Tem 100
ique 100
▁again 100
CO 100
▁16 100
55 100
▁cert 100
spec 100
▁href 100
Entity 100
client 100
URL 100
▁container 100
▁looks 100
auth 100
Page 100
esc 100
context 100
message 100
ragment 100
MP 100
cle 100
▁based 100
1' 100
Next 100
▁connect 100
▁Out 100
▁sql 100
ither 100
evice 100
▁extends 100
2" 100
▁background 100
Run 100
▁selected 100
▁comput 100
rem 100
ository 100
14 100
verse 100
down 100
actor 100
▁many 100
▁good 100
trans 100
▁product 100
ializer 100
names 100
atic 100
vas 100
▁/> 100
-------- 100
FF 100
▁0, 100
▁include 100
▁best 100
▁yield 100
Stack 100
Session 100
++ 100
write 100
▁columns 100
tach 100
uture 100
Local 100
▁too 100
ariable 100
Access 100
ww 100
HT 100
Click 100
image 100
match 100
▁configuration 100
▁raw 100
mon 100
ization 100
"; 100
▁entity 100
▁expect 100
evelop 100
▁$(' 100
ids 100
aw 100
▁encoding 100
ane 100
output 100
:00 100
Base 100
SER 100
ds 100
▁det 100
▁compare 100
mbol 100
▁separ 100
SI 100
▁statement 100
▁condition 100
ru 100
epend 100
irectory 100
ops 100
▁had 100
ats 100
Types 100
tempt 100
ialize 100
▁within 100
ily 100
find 100
▁Web 100
sv 100
15 100
▁ident 100
▁channel 100
Char 100
terator 100
". 100
aces 100
▁rows 100
Offset 100
Values 100
▁take 100
▁js 100
www 100
▁graph 100
aven 100
▁functions 100
Mode 100
▁suggest 100
Enabled 100
ointer 100
▁SQL 100
ably 100
conn 100
▁getValue 100
max 100
Expression 100
▁comment 100
ero 100
width 100
▁extra 100
patch 100
▁SE 100
▁prob 100
▁1, 100
ta 100
anged 100
▁invo 100
igger 100
Tree 100
Store 100
values 100
▁folder 100
▁apply 100
▁move 100
▁tmp 100
Width 100
▁short 100
amed 100
Ob 100
local 100
ilar 100
prot 100
▁Loc 100
refix 100
▁>> 100
▁information 100
▁having 100
br 100
▁Byte 100
tn 100
stract 100
▁clean 100
▁much 100
Bean 100
▁Long 100
EY 100
Point 100
▁side 100
istry 100
▁setup 100
icode 100
▁socket 100
ather 100
Valid 100
ott 100
▁resp 100
Function 100
▁dum 100
Parameter 100
Command 100
amples 100
uff 100
Box 100
▁tree 100
]) 100
Parser 100
▁say 100
Vis 100
idden 100
▁edit 100
▁clo 100
Part 100
ination 100
▁Config 100
▁Thread 100
▁won 100
Pack 100
lish 100
Helper 100
▁those 100
▁pk 100
▁sample 100
Comp 100
dapt 100
current 100
▁appro 100
▁thing 100
ether 100
▁^ 100
>< 100
▁limit 100
ayer 100
▁Also 100
ration 100
▁pool 100
▁adv 100
title 100
ier 100
▁TypeError 100
▁unit 100
files 100
▁fig 100
const 100
known 100
▁given 100
></ 100
▁$( 100
open 100
Default 100
top 100
Options 100
sql 100
▁available 100
▁etc 100
VE 100
▁Path 100
5, 100
swith 100
▁validate 100
▁nodes 100
Project 100
▁synchron 100
Writer 100
19 100
▁interface 100
UI 100
sent 100
▁box 100
https 100
▁types 100
▁admin 100
▁memory 100
block 100
▁scope 100
▁mean 100
▁cell 100
DI 100
▁eff 100
({ 100
▁download 100
scope 100
▁tak 100
eet 100
▁` 100
18 100
22 100
▁0; 100
Loader 100
ajax 100
bed 100
▁That 100
▁actually 100
▁HTTP 100
▁XML 100
pi 100
iated 100
ived 100
▁collection 100
search 100
▁cursor 100
▁Ed 100
System 100
Read 100
▁Attribute 100
main 100
call 100
▁failed 100
▁times 100
0. 100
▁site 100
▁own 100
tag 100
Down 100
Panel 100
▁missing 100
▁login 100
▁Run 100
_2 100
▁changes 100
▁give 100
most 100
33 100
true 100
pc 100
▁cluster 100
ances 100
▁bl 100
rypt 100
eted 100
ntax 100
ired 100
efined 100
ved 100
apshot 100
▁Mock 100
side 100
cy 100
▁previous 100
Window 100
ictionary 100
▁lower 100
▁verify 100
▁cons 100
Create 100
lang 100
▁ids 100
afe 100
▁their 100
dapter 100
ounds 100
web 100
Per 100
▁acc 100
eline 100
▁control 100
Order 100
rome 100
▁section 100
Const 100
▁models 100
element 100
sure 100
▁accept 100
EN 100
▁lat 100
AS 100
Meta 100
Mem 100
select 100
DB 100
len 100
▁most 100
do 100
jquery 100
▁assertFalse 100
▁users 100
▁screen 100
ites 100
▁high 100
▁Please 100
▁und 100
gular 100
Spec 100
▁ut 100
ware 100
Application 100
▁axis 100
erge 100
color 100
Container 100
parent 100
ply 100
▁Exp 100
▁expression 100
No 100
▁looking 100
▁via 100
status 100
IO 100
println 100
Pl 100
Module 100
Num 100
Return 100
▁encode 100
▁listener 100
iting 100
▁beh 100
Init 100
Target 100
ged 100
refer 100
▁perm 100
40 100
▁iterator 100
ense 100
update 100
Position 100
icle 100
column 100
oun 100
append 100
Change 100
alled 100
andard 100
▁idea 100
▁images 100
aster 100
▁NotNull 100
ookie 100
▁warning 100
▁15 100
▁attributes 100
ibility 100
izer 100
▁kind 100
ux 100
▁setUp 100
TH 100
▁fetch 100
▁exc 100
▁similar 100
pu 100
▁Math 100
Ass 100
ling 100
▁getR 100
78 100
ucket 100
(), 100
▁exact 100
ggreg 100
Queue 100
()); 100
lain 100
ias 100
▁report 100
()) 100
▁Request 100
▁dev 100
▁11 100
▁menu 100
MB 100
▁tf 100
Operation 100
▁defined 100
▁calcul 100
▁either 100
used 100
▁ignore 100
Sec 100
UR 100
36 100
▁queue 100
Reference 100
▁once 100
irtual 100
sk 100
eo 100
▁gre 100
▁Javascript 100
Height 100
▁numbers 100
▁controller 100
▁uri 100
udio 100
ik 100
▁getF 100
▁normal 100
dec 100
▁alert 100
\\ 100
▁3. 100
▁font 100
▁scroll 100
lines 100
▁video 100
ayload 100
cer 100
iler 100
cache 100
▁export 100
▁idx 100
less 100
Hash 100
Document 100
▁rule 100
1) 100
▁visit 100
Location 100
var 100
part 100
}, 100
aset 100
▁provid 100
▁Input 100
params 100
▁Try 100
2' 100
▁tags 100
ending 100
shape 100
post 100
▁arguments 100
Gener 100
Link 100
ifact 100
Level 100
aved 100
▁Time 100
▁reset 100
gin 100
FAULT 100
Adapter 100
▁br 100
▁constructor 100
▁approach 100
IL 100
ured 100
Unit 100
Properties 100
Record 100
▁layout 100
▁creating 100
aint 100
can 100
Long 100
▁please 100
▁he 100
otal 100
▁Message 100
Update 100
▁>>> 100
▁exit 100
support 100
▁getId 100
▁Runtime 100
▁proto 100
root 100
▁Builder 100
▁Py 100
▁ca 100
ottom 100
ATION 100
lipse 100
EX 100
▁isn 100
▁extract 100
adding 100
▁[' 100
rib 100
img 100
▁getInstance 100
avi 100
imum 100
edi 100
cho 100
"," 100
▁lock 100
▁invalid 100
▁dynam 100
▁going 100
▁Your 100
unch 100
iod 100
next 100
token 100
▁batch 100
▁mult 100
▁Reg 100
head 100
endar 100
RA 100
▁lot 100
▁compile 100
▁Ar 100
▁submit 100
build 100
▁Use 100
LA 100
▁Note 100
▁getClass 100
command 100
▁mat 100
Prot 100
▁upload 100
▁art 100
▁Code 100
▁Image 100
▁anyone 100
▁things 100
ries 100
lice 100
▁pol 100
PA 100
Match 100
▁active 100
location 100
▁anything 100
▁Inter 100
▁isEmpty 100
env 100
▁metadata 100
▁appe 100
pring 100
▁simply 100
▁uses 100
▁means 100
▁namespace 100
VER 100
▁hashCode 100
getElement 100
child 100
▁fill 100
Byte 100
▁pip 100
Found 100
▁enter 100
▁Why 100
▁includ 100
▁schema 100
ABLE 100
27 100
Rem 100
Http 100
▁strip 100
Integer 100
exec 100
▁events 100
▁enum 100
Fields 100
bin 100
▁tuple 100
▁prom 100
book 100
▁character 100
($ 100
oved 100
▁probably 100
▁30 100
▁Trans 100
▁uint 100
layer 100
▁Invalid 100
ersist 100
▁driver 100
]; 100
ym 100
37 100
▁proper 100
Back 100
lar 100
char 100
Settings 100
▁diff 100
▁strings 100
17 100
▁decode 100
uto 100
oute 100
▁meta 100
mutable 100
▁Name 100
'; 100
mark 100
▁tests 100
ted 100
uil 100
▁prep 100
▁adding 100
▁tell 100
▁operation 100
udent 100
▁Check 100
▁Boolean 100
▁Ab 100
encies 100
▁$(" 100
▁transform 100
UP 100
▁ask 100
urren 100
irection 100
iver 100
comm 100
core 100
ithm 100
Callback 100
gor 100
Trace 100
38 100
TO 100
▁sent 100
sumer 100
imary 100
▁getattr 100
▁apprec 100
New 100
Params 100
aries 100
Collection 100
▁numpy 100
▁children 100
▁attrs 100
▁zip 100
ross 100
100 100
Port 100
▁begin 100
▁head 100
▁synchronized 100
css 100
number 100
TYPE 100
▁te 100
andas 100
▁environment 100
func 100
)); 100
ALUE 100
(){ 100
▁occ 100
constructor 100
session 100
▁reader 100
google 100
Dialog 100
store 100
Descriptor 100
Controller 100
▁1000 100
▁getString 100
itten 100
▁far 100
InputStream 100
▁produ 100
Pool 100
inst 100
CON 100
4, 100
▁regex 100
▁documentation 100
▁writer 100
▁needs 100
▁Output 100
def 100
▁incre 100
▁async 100
▁Se 100
board 100
uilt 100
ached 100
php 100
Body 100
[1 100
▁year 100
tract 100
▁existing 100
▁weight 100
▁fake 100
▁cho 100
▁Event 100
▁calling 100
rad 100
▁Model 100
▁After 100
late 100
atform 100
show 100
mode 100
▁implementation 100
▁retr 100
leep 100
▁Index 100
▁constant 100
Job 100
▁IllegalArgument 100
▁resolve 100
▁supp 100
ithub 100
▁fire 100
stream 100
ram 100
▁execut 100
28 100
▁Act 100
▁collect 100
▁logging 100
▁language 100
▁Action 100
style 100
▁Window 100
▁Sub 100
way 100
ntil 100
Pr 100
4. 100
▁Content 100
▁small 100
istory 100
26 100
cent 100
SC 100
space 100
ENT 100
co 100
active 100
PT 100
uction 100
▁remote 100
▁structure 100
MO 100
des 100
▁author 100
Bar 100
▁present 100
▁setting 100
SH 100
35 100
plex 100
ately 100
options 100
Tim 100
▁around 100
Search 100
ensions 100
Template 100
Menu 100
rior 100
ocus 100
Socket 100
bl 100
▁finish 100
▁ng 100
NotNull 100
Ext 100
Statement 100
▁40 100
aly 100
plot 100
ention 100
▁Local 100
ied 100
header 100
luster 100
split 100
▁gets 100
▁inf 100
Work 100
▁getA 100
▁grid 100
▁dig 100
▁operator 100
▁calls 100
▁bool 100
Call 100
target 100
▁protocol 100
ui 100
etrics 100
▁cor 100
buf 100
-01 100
light 100
▁auto 100
argin 100
▁solve 100
0' 100
kens 100
▁made 100
▁extension 100
▁lin 100
NO 100
rupt 100
▁inv 100
▁sorted 100
Endpoint 100
Range 100
▁dim 100
Files 100
licit 100
▁Using 100
▁develop 100
Changed 100
ours 100
imation 100
dat 100
Channel 100
▁Context 100
Definition 100
▁requests 100
▁50 100
▁inner 100
AGE 100
Host 100
txt 100
virtual 100
Option 100
▁plot 100
▁track 100
uplic 100
▁Inst 100
hing 100
▁fs 100
emo 100
▁}; 100
▁Android 100
▁Rep 100
bit 100
Timeout 100
sign 100
▁correctly 100
▁characters 100
pth 100
anch 100
▁dictionary 100
▁messages 100
ialized 100
▁Spring 100
▁Item 100
▁stdout 100
acity 100
▁cf 100
IME 100
29 100
:\ 100
oud 100
▁Simple 100
avig 100
48 100
▁unique 100
39 100
Constants 100
▁proxy 100
etric 100
▁updated 100
▁attach 100
Root 100
document 100
▁Field 100
the 100
IG 100
▁HashMap 100
▁skip 100
▁Create 100
▁img 100
FO 100
▁autom 100
==== 100
▁Char 100
▁django 100
▁words 100
entication 100
ird 100
close 100
day 100
achine 100
',' 100
▁happen 100
▁figure 100
▁ach 100
Web 100
▁redirect 100
200 100
▁redu 100
de 100
▁Dis 100
▁player 100
▁trace 100
▁DOM 100
▁sched 100
▁inputs 100
DIT 100
gorithm 100
▁day 100
OutputStream 100
uring 100
project 100
iteral 100
▁directly 100
Directory 100
":" 100
ma 100
▁Gener 100
pha 100
▁someone 100
▁Google 100
lush 100
▁cap 100
▁force 100
aining 100
▁lookup 100
ccount 100
▁points 100
olute 100
null 100
▁patch 100
Last 100
▁flags 100
SQL 100
scri 100
Mock 100
▁widget 100
▁getMessage 100
▁factory 100
rate 100
UN 100
rowable 100
level 100
ordin 100
▁chunk 100
▁mask 100
height 100
ullable 100
▁though 100
MS 100
ATH 100
Ad 100
ased 100
ains 100
▁define 100
▁prop 100
address 100
▁StringBuilder 100
EST 100
struction 100
[0] 100
DO 100
▁contents 100
▁2, 100
▁txt 100
([ 100
ok 100
clipse 100
▁nothing 100
EL 100
template 100
Obj 100
▁returned 100
▁fla 100
▁never 100
layout 100
▁Method 100
Override 100
▁loaded 100
Interface 100
ium 100
▁Default 100
dk 100
ROR 100
Java 100
▁bad 100
2) 100
▁volume 100
INT 100
▁Ref 100
getElementById 100
dist 100
▁space 100
▁category 100
sec 100
task 100
opt 100
▁First 100
▁refresh 100
service 100
ibern 100
▁everything 100
mary 100
UM 100
▁Server 100
inner 100
▁evalu 100
▁enc 100
ibernate 100
▁activity 100
msg 100
▁however 100
Description 100
▁pick 100
ategy 100
▁Base 100
req 100
▁train 100
-8 100
▁We 100
▁DEFAULT 100
ixel 100
ift 100
▁advance 100
▁Result 100
▁Buffer 100
VI 100
Max 100
Ident 100
▁fr 100
▁parts 100
▁were 100
TER 100
keys 100
ci 100
egate 100
pose 100
▁attempt 100
fields 100
▁reverse 100
One 100
▁scale 100
ello 100
CTION 100
▁Double 100
▁integer 100
▁startswith 100
Top 100
▁month 100
▁Rem 100
creen 100
▁trigger 100
▁storage 100
▁until 100
ulate 100
▁amount 100
▁canvas 100
▁saved 100
icate 100
source 100
▁compute 100
▁Service 100
▁Element 100
ene 100
▁person 100
DER 100
Doc 100
▁core 100
plete 100
atically 100
Python 100
items 100
▁endpoint 100
▁Edit 100
▁matches 100
▁few 100
nable 100
▁itself 100
▁Val 100
packages 100
▁Qu 100
strap 100
Servlet 100
stack 100
iff 100
▁utf 100
jar 100
nal 100
▁One 100
▁seconds 100
KEY 100
utils 100
ster 100
Control 100
▁gives 100
Nodes 100
▁Json 100
cheme 100
Title 100
▁hasattr 100
▁\\ 100
▁arr 100
▁sa 100
ES 100
ters 100
▁provider 100
▁Client 100
▁game 100
▁0.5 100
▁addition 100
zz 100
US 100
▁EDIT 100
45 100
last 100
]: 100
lags 100
▁labels 100
vis 100
▁desc 100
▁clone 100
▁lar 100
src 100
▁Sec 100
▁io 100
▁engine 100
▁Fil 100
Sp 100
Storage 100
Attributes 100
ood 100
copy 100
▁css 100
▁With 100
▁guess 100
▁CSS 100
▁cause 100
▁19 100
▁behavi 100
inding 100
wise 100
/> 100
ouch 100
▁currently 100
first 100
▁typ 100
Encod 100
cast 100
▁Auth 100
:0 100
hash 100
ists 100
ability 100
86 100
▁Throwable 100
▁Su 100
ides 100
▁warn 100
oding 100
▁undefined 100
▁Sel 100
ories 100
aN 100
Wh 100
ZE 100
▁() 100
▁website 100
▁passed 100
Json 100
▁uuid 100
email 100
ators 100
Rel 100
▁didn 100
▁gl 100
If 100
Pane 100
▁score 100
▁dt 100
ints 100
ailure 100
derr 100
ively 100
▁details 100
meta 100
escape 100
filename 100
3" 100
connect 100
arsh 100
▁push 100
egment 100
▁Response 100
itable 100
▁role 100
▁getType 100
▁}) 100
Resol 100
▁vm 100
▁cla 100
▁See 100
▁14 100
▁editor 100
▁layer 100
oder 100
OS 100
password 100
▁appreciated 100
▁member 100
illis 100
angle 100
▁modules 100
Tool 100
▁generated 100
5. 100
▁valueOf 100
▁installed 100
▁EX 100
▁Tra 100
▁dst 100
Package 100
▁jar 100
Protocol 100
Parameters 100
▁Rec 100
▁named 100
umb 100
ts 100
▁Query 100
▁Des 100
position 100
▁Link 100
fiddle 100
▁commit 100
Implement 100
▁none 100
vices 100
▁nested 100
▁Open 100
remove 100
ountry 100
▁represent 100
ressed 100
▁handl 100
LECT 100
Style 100
▁Immutable 100
HTML 100
▁avoid 100
Variable 100
▁bean 100
etwork 100
▁rather 100
▁internal 100
supported 100
fn 100
▁written 100
▁takes 100
▁"/ 100
▁modify 100
▁Arrays 100
▁shows 100
NS 100
oom 100
▁platform 100
tty 100
▁fn 100
60 100
▁Task 100
▁fact 100
▁mouse 100
wo 100
docs 100
cd 100
▁vert 100
▁GET 100
spring 100
▁groups 100
ls 100
▁pi 100
▁POST 100
▁rs 100
▁feed 100
Conn 100
▁Number 100
▁NO 100
▁jquery 100
▁icon 100
DF 100
Lock 100
▁Form 100
▁prev 100
▁Cal 100
cp 100
kw 100
59 100
▁math 100
irm 100
ker 100
▁profile 100
▁All 100
▁binary 100
xx 100
ude 100
▁eq 100
eom 100
android 100
eel 100
err 100
▁fixed 100
▁rad 100
▁arch 100
▁drop 100
oto 100
IC 100
▁CO 100
▁provide 100
▁Table 100
vironment 100
▁apache 100
urrency 100
fs 100
ipp 100
▁border 100
▁merge 100
▁whole 100
▁partic 100
▁expr 100
▁release 100
▁Process 100
▁note 100
▁DB 100
▁timestamp 100
amel 100
Users 100
▁$('# 100
Can 100
_0 100
itive 100
▁decla 100
asic 100
▁writing 100
using 100
▁standard 100
Holder 100
pol 100
SY 100
70 100
Graph 100
PER 100
card 100
▁complete 100
▁Option 100
section 100
▁inc 100
Parent 100
Policy 100
tim 100
peed 100
Rece 100
Keys 100
▁mov 100
▁enable 100
dim 100
Cell 100
anges 100
▁difference 100
UID 100
mock 100
▁prefer 100
Items 100
▁starts 100
▁book 100
▁world 100
▁external 100
ian 100
▁making 100
▁basic 100
ORT 100
IP 100
▁related 100
▁exactly 100
▁manager 100
ittle 100
▁vo 100
▁symbol 100
entials 100
7. 100
gener 100
▁Big 100
▁comb 100
StackTrace 100
expected 100
display 100
queue 100
holder 100
2.1 100
ao 100
▁syntax 100
▁~ 100
orter 100
▁Resource 100
Ind 100
▁achieve 100
▁makes 100
▁pred 100
23 100
▁execution 100
Iterator 100
secon 100
▁ms 100
'. 100
▁effect 100
▁security 100
▁matrix 100
asure 100
▁Project 100
▁grad 100
▁csv 100
Mapping 100
iate 100
▁threads 100
▁OS 100
▁ok 100
▁transaction 100
▁Entry 100
yles 100
roy 100
▁indices 100
▁counter 100
ember 100
▁Example 100
76 100
▁0.1 100
▁dialog 100
ools 100
▁fit 100
▁reading 100
XML 100
44 100
static 100
.0.0 100
ended 100
▁sequence 100
-> 100
Selected 100
▁invoke 100
▁entries 100
▁sleep 100
75 100
▁ensure 100
utorial 100
oose 100
▁separate 100
▁tog 100
▁pretty 100
▁hand 100
▁needed 100
ording 100
▁commands 100
▁ajax 100
olog 100
Min 100
riority 100
▁three 100
▁integ 100
▁consider 100
90 100
▁Application 100
▁ne 100
tra 100
▁From 100
▁pair 100
▁Django 100
▁tm 100
boot 100
▁mapping 100
2_ 100
Wrapper 100
▁deploy 100
▁repe 100
Repository 100
NotFound 100
Elements 100
HP 100
▁Configuration 100
▁Function 100
▁easy 100
▁prepare 100
▁Could 100
7, 100
TY 100
13 100
aunch 100
▁route 100
IS 100
▁UT 100
icient 100
▁Since 100
AC 100
▁payload 100
▁testing 100
▁CON 100
▁built 100
Icon 100
delete 100
ASE 100
apache 100
None 100
napshot 100
▁configure 100
▁scan 100
ten 100
join 100
Tab 100
▁arrays 100
▁sever 100
▁compar 100
MENT 100
ymbol 100
only 100
bose 100
als 100
right 100
ROM 100
DATE 100
left 100
▁pd 100
rel 100
▁32 100
uler 100
Rule 100
bytes 100
ords 100
wd 100
▁pur 100
Conf 100
={ 100
Pos 100
ght 100
▁substring 100
▁gen 100
▁center 100
▁specify 100
lack 100
▁keyword 100
▁bound 100
▁Iterator 100
▁least 100
Post 100
ison 100
▁Abstract 100
conf 100
▁); 100
▁certain 100
otype 100
▁IE 100
▁selector 100
▁getKey 100
framework 100
▁padding 100
▁properly 100
▁UI 100
▁Exec 100
Ph 100
issions 100
▁wrap 100
erate 100
range 100
▁region 100
▁resources 100
▁Document 100
Open 100
Metadata 100
▁TEST 100
▁13 100
ribution 100
▁Foo 100
quired 100
Be 100
"] 100
entry 100
bs 100
Dict 100
PRO 100
weight 100
▁Comp 100
AM 100
▁great 100
ificate 100
▁imp 100
▁Valid 100
▁stats 100
▁little 100
▁State 100
apter 100
▁chart 100
plugin 100
libs 100
▁maybe 100
▁native 100
▁framework 100
1_ 100
▁less 100
▁initialize 100
pg 100
▁follows 100
import 100
unit 100
ialization 100
window 100
eft 100
▁Dec 100
JSON 100
▁NaN 100
▁big 100
VALUE 100
mail 100
itude 100
amily 100
Widget 100
ives 100
DS 100
▁selection 100
bind 100
▁whether 100
era 100
▁lists 100
▁setText 100
▁mention 100
▁bottom 100
medi 100
just 100
▁assertIs 100
▁stored 100
▁recomm 100
DK 100
UB 100
▁00 100
omething 100
▁features 100
▁partition 100
ecess 100
000000 100
Schema 100
▁Tree 100
ump 100
Perm 100
▁<< 100
▁runs 100
ius 100
fully 100
ifest 100
▁Just 100
▁Fire 100
(( 100
▁indent 100
▁18 100
▁Pl 100
▁Windows 100
URI 100
▁enabled 100
▁FI 100
▁loading 100
▁specified 100
Transaction 100
which 100
Sign 100
▁Collections 100
3' 100
▁stderr 100
Handle 100
▁loads 100
▁Param 100
▁quot 100
aps 100
First 100
▁Stream 100
▁React 100
▁problems 100
Current 100
prefix 100
▁sv 100
▁Column 100
dev 100
Editor 100
▁echo 100
▁Read 100
raries 100
▁ir 100
pond 100
iag 100
▁supported 100
▁Update 100
▁descri 100
▁Does 100
68 100
▁loader 100
▁complet 100
▁started 100
Device 100
settings 100
zone 100
ards 100
▁our 100
step 100
Pattern 100
}} 100
container 100
BU 100
pons 100
Millis 100
▁hard 100
▁bucket 100
▁turn 100
▁definition 100
▁expand 100
Write 100
(): 100
▁cred 100
case 100
Mapper 100
ality 100
▁interval 100
Fragment 100
Uri 100
▁exchange 100
Proxy 100
eric 100
atal 100
OK 100
tab 100
ATA 100
connection 100
Red 100
▁checked 100
Lib 100
▁components 100
▁clicked 100
▁dataset 100
ULL 100
eno 100
github 100
rt 100
replace 100
▁hidden 100
▁Connection 100
depend 100
▁logic 100
▁utils 100
Registry 100
Pointer 100
1/ 100
49 100
handler 100
▁annotation 100
man 100
eek 100
SO 100
▁pandas 100
acy 100
▁manag 100
▁Chrome 100
Ids 100
▁links 100
aterial 100
Only 100
▁unicode 100
▁2.0 100
▁PRO 100
▁particular 100
ca 100
Cal 100
▁runtime 100
▁Job 100
foo 100
Feature 100
▁worked 100
ought 100
▁Grid 100
▁shell 100
CP 100
SIZE 100
component 100
▁progress 100
▁days 100
▁Del 100
cing 100
▁automatically 100
▁happens 100
▁props 100
home 100
▁margin 100
▁instances 100
6, 100
[" 100
▁recent 100
▁PHP 100
outer 100
▁alias 100
▁FROM 100
alk 100
stri 100
etry 100
▁*/ 100
▁Custom 100
My 100
-9 100
▁flush 100
▁dataframe 100
▁Nullable 100
▁pid 100
▁Graph 100
like 100
▁getText 100
▁TAB 100
send 100
▁Sc 100
ceed 100
▁simpl 100
▁repo 100
▁compiler 100
sort 100
▁ER 100
▁addr 100
eer 100
▁comments 100
▁entire 100
Mon 100
Prefix 100
▁MAX 100
Active 100
.... 100
Implemented 100
Interval 100
▁(' 100
vision 100
VM 100
▁provided 100
▁Main 100
▁ui 100
▁future 100
▁await 100
Pre 100
▁cookie 100
▁$("# 100
where 100
Selection 100
ycle 100
icro 100
▁pages 100
ges 100
▁ims 100
▁several 100
▁Ob 100
7/ 100
Edit 100
domain 100
▁capt 100
Results 100
jsfiddle 100
cover 100
Warning 100
Step 100
▁duplic 100
inder 100
▁cancel 100
▁dependencies 100
enium 100
▁Source 100
acter 100
▁owner 100
▁bro 100
ALI 100
tree 100
Ns 100
POST 100
▁equalTo 100
tool 100
▁3, 100
▁verbose 100
▁policy 100
▁Token 100
▁usage 100
me 100
graph 100
▁complex 100
▁backend 100
argument 100
▁Session 100
example 100
▁intent 100
▁failure 100
rows 100
▁docs 100
Selector 100
▁elem 100
MBOL 100
▁sess 100
ublic 100
▁large 100
▁Angular 100
▁'' 100
▁calculate 100
▁Color 100
return 100
▁Tim 100
▁Block 100
▁algorithm 100
methods 100
▁Cannot 100
handle 100
pdown 100
▁rc 100
exception 100
1: 100
▁upper 100
ixed 100
Vector 100
hs 100
ture 100
66 100
menu 100
▁inject 100
obile 100
▁activ 100
▁validation 100
Render 100
Cre 100
▁changing 100
▁SO 100
▁panel 100
▁TYPE 100
▁Component 100
▁virtual 100
grad 100
Left 100
88 100
▁allowed 100
Sequence 100
▁rect 100
ippet 100
▁yet 100
ube 100
Report 100
▁60 100
▁fp 100
▁win 100
Bundle 100
dbc 100
79 100
Op 100
▁cast 100
▁machine 100
false 100
▁Some 100
▁1) 100
has 100
▁topic 100
▁removed 100
lation 100
Close 100
▁NOT 100
▁Buffered 100
▁wra 100
▁design 100
Build 100
▁issues 100
▁shown 100
lash 100
▁ts 100
SYMBOL 100
▁buttons 100
ropdown 100
▁cases 100
▁Tem 100
FILE 100
▁25 100
▁free 100
uation 100
Logger 100
▁rot 100
Boolean 100
▁media 100
come 100
admin 100
▁round 100
SL 100
properties 100
▁pla 100
loyee 100
▁executed 100
Draw 100
Are 100
▁Oper 100
Children 100
▁subject 100
▁IP 100
Double 100
▁programm 100
eries 100
▁Parse 100
▁Id 100
cmd 100
▁angular 100
▁mail 100
▁Work 100
▁AttributeError 100
oded 100
▁WH 100
reshold 100
:: 100
▁outside 100
Vo 100
andid 100
▁NotImplemented 100
Convert 100
▁Failed 100
▁Group 100
▁bin 100
ORM 100
▁multip 100
lex 100
istration 100
▁helps 100
▁/* 100
▁subprocess 100
save 100
▁protobuf 100
▁recurs 100
addr 100
▁shared 100
'], 100
▁24 100
++) 100
▁Intent 100
▁primary 100
Scope 100
lin 100
▁{' 100
▁parsed 100
property 100
submit 100
ek 100
fox 100
Custom 100
▁Person 100
servable 100
▁seen 100
▁increment 100
Var 100
0" 100
0_ 100
repr 100
▁span 100
▁tokens 100
how 100
▁TABSYMBOL 100
▁generator 100
▁wrapper 100
▁INT 100
Tr 100
▁listen 100
oup 100
---------------- 100
feature 100
▁vector 100
Details 100
usr 100
amera 100
▁$. 100
csv 100
Non 100
herit 100
▁signature 100
▁hasNext 100
vm 100
▁InputStream 100
▁ker 100
▁mig 100
egin 100
icker 100
▁Search 100
▁quite 100
▁containing 100
▁master 100
▁direction 100
Stats 100
mask 100
6. 100
yg 100
PATH 100
Password 100
elist 100
▁outputs 100
ariables 100
▁Line 100
Executor 100
▁receive 100
javascript 100
▁hide 100
▁assertNotNull 100
▁annot 100
egative 100
tensor 100
▁additional 100
▁rv 100
NG 100
▁ways 100
▁delta 100
edException 100
▁repository 100
offset 100
inc 100
Inst 100
Support 100
▁ord 100
Args 100
ident 100
▁retrieve 100
▁spring 100
▁visible 100
ract 100
hel 100
product 100
thread 100
ocation 100
▁SELECT 100
▁getProperty 100
MA 100
▁filters 100
▁Ad 100
ario 100
▁paths 100
Term 100
kwargs 100
▁Build 100
socket 100
.) 100
._ 100
▁Command 100
login 100
▁requires 100
ANCE 100
mission 100
▁hello 100
▁cs 100
Driver 100
ogn 100
▁wanted 100
manager 100
btn 100
SP 100
▁javax 100
▁snapshot 100
▁equ 100
emon 100
▁closed 100
OP 100
▁ast 100
▁zero 100
Engine 100
▁dom 100
▁Null 100
sets 100
icon 100
:5 100
▁alpha 100
▁dynamic 100
Xml 100
▁tasks 100
tk 100
aa 100
▁norm 100
Visible 100
▁mk 100
device 100
▁price 100
osed 100
Database 100
▁UP 100
▁regular 100
oring 100
▁Hello 100
▁passing 100
Enum 100
spect 100
▁optim 100
1.0 100
▁est 100
▁relative 100
zip 100
ze 100
▁says 100
sm 100
▁rand 100
Runtime 100
HO 100
Ab 100
GER 100
▁publish 100
▁Vector 100
Main 100
▁prec 100
encode 100
▁appear 100
▁escape 100
ike 100
▁onclick 100
'), 100
SV 100
np 100
ignment 100
eros 100
▁sur 100
=0 100
▁dependency 100
8, 100
▁care 100
Rect 100
2/ 100
Progress 100
▁boot 100
pect 100
▁delay 100
ERE 100
The 100
Generator 100
ART 100
▁period 100
driver 100
▁override 100
▁explicit 100
▁Entity 100
▁tensor 100
▁altern 100
utdown 100
▁Const 100
▁performance 100
mapp 100
▁thought 100
▁Unsupported 100
estion 100
▁Sw 100
aut 100
quare 100
make 100
▁<! 100
float 100
▁starting 100
▁embed 100
▁stuff 100
▁OK 100
▁opts 100
▁flow 100
▁Order 100
▁desired 100
▁later 100
▁Page 100
▁charset 100
3_ 100
▁flat 100
▁mac 100
oment 100
▁[] 100
ven 100
bound 100
▁localhost 100
Execution 100
Plugin 100
▁student 100
Prefer 100
ology 100
Resolver 100
control 100
cr 100
▁constra 100
▁views 100
ecessary 100
Headers 100
▁libraries 100
arshall 100
Mark 100
▁suff 100
png 100
plan 100
park 100
ViewById 100
▁Property 100
▁concat 100
▁LI 100
▁actions 100
▁dot 100
anks 100
▁Util 100
▁abc 100
▁examples 100
▁ops 100
Profile 100
▁prevent 100
▁special 100
▁ep 100
▁{} 100
▁enough 100
▁Multi 100
results 100
▁pointer 100
▁seq 100
▁cir 100
▁getDefault 100
atever 100
▁behavior 100
icture 100
area 100
▁determ 100
GET 100
Msg 100
▁17 100
headers 100
tries 100
Dist 100
Processor 100
classes 100
SET 100
▁enumerate 100
cu 100
Account 100
▁coordin 100
▁general 100
Compar 100
off 100
Memory 100
Track 100
▁ds 100
install 100
ITE 100
AND 100
ler 100
▁-= 100
Bit 100
▁Count 100
▁Pack 100
▁KEY 100
yntax 100
▁rules 100
▁versions 100
▁series 100
eople 100
▁Start 100
▁Point 100
Ignore 100
▁construct 100
AV 100
clus 100
Tests 100
▁disable 100
temp 100
▁Per 100
▁Qt 100
HE 100
="# 100
▁fast 100
▁exceptions 100
▁fragment 100
▁md 100
Region 100
sd 100
▁btn 100
parser 100
verage 100
▁cpu 100
[1] 100
▁notify 100
sible 100
pass 100
Async 100
buffer 100
▁duration 100
Success 100
Future 100
▁fd 100
▁signal 100
21 100
ernal 100
▁aggreg 100
rift 100
Constra 100
Select 100
SION 100
▁iterate 100
77 100
random 100
▁returning 100
"/> 100
laration 100
grade 100
nter 100
▁hex 100
▁DI 100
▁Eclipse 100
▁due 100
imes 100
Each 100
▁Tag 100
QUE 100
▁fore 100
ongo 100
Multi 100
2: 100
▁comes 100
gent 100
loader 100
leton 100
▁Instead 100
allel 100
▁wonder 100
▁exper 100
▁ww 100
▁perf 100
Decimal 100
▁dynamically 100
▁Change 100
## 100
empty 100
▁disk 100
▁Str 100
▁tutorial 100
Identifier 100
Ins 100
▁bug 100
▁NAME 100
faces 100
counter 100
OUT 100
▁qual 100
Cap 100
▁binding 100
▁destination 100
▁choice 100
▁bundle 100
▁tables 100
▁assoc 100
▁implemented 100
▁fac 100
▁quick 100
LL 100
▁ERROR 100
kit 100
Failure 100
oriz 100
ips 100
Bounds 100
username 100
arm 100
imate 100
uming 100
▁sit 100
▁KeyError 100
▁scal 100
▁ones 100
▁rele 100
go 100
ifactId 100
Over 100
Total 100
▁snippet 100
▁modified 100
ITY 100
">< 100
wr 100
▁OR 100
▁cfg 100
Attr 100
chor 100
ival 100
▁Look 100
▁quote 100
▁--> 100
▁Access 100
Runner 100
▁recommend 100
PRE 100
▁Ptr 100
▁explain 100
▁persist 100
push 100
CESS 100
▁unknown 100
WS 100
▁getData 100
De 100
Ow 100
TR 100
%; 100
▁asList 100
gb 100
▁ps 100
▁appears 100
▁manually 100
▁500 100
aml 100
enant 100
▁UN 100
center 100
▁questions 100
▁sal 100
▁pixel 100
▁allows 100
▁Button 100
▁ssl 100
Native 100
▁getL 100
▁Print 100
▁Import 100
▁bits 100
▁scheme 100
fr 100
axis 100
Extension 100
non 100
Sum 100
▁dispatch 100
profile 100
▁agent 100
▁locale 100
callback 100
▁share 100
na 100
API 100
iev 100
URE 100
wrap 100
▁registry 100
place 100
3) 100
▁reduce 100
ully 100
modules 100
Inf 100
▁=== 100
▁Pre 100
alth 100
▁trim 100
▁safe 100
▁warnings 100
ALL 100
▁forward 100
plet 100
vars 100
ipe 100
▁Runnable 100
▁blank 100
▁records 100
timeout 100
ONE 100
ecause 100
▁packages 100
46 100
▁tools 100
▁assertIn 100
▁said 100
oper 100
▁New 100
▁steps 100
safe 100
▁sig 100
some 100
▁lead 100
rs 100
▁outfile 100
▁php 100
▁alloc 100
▁SQLException 100
▁answers 100
▁navig 100
plates 100
▁className 100
omic 100
Annotation 100
agic 100
▁Ext 100
▁zone 100
8. 100
rowse 100
▁slow 100
here 100
mem 100
▁Hope 100
▁mentioned 100
▁UTF 100
▁during 100
ayment 100
▁cv 100
Player 100
pk 100
fill 100
▁www 100
▁corres 100
Pair 100
ingleton 100
▁sync 100
urther 100
▁checkbox 100
ipher 100
loop 100
iation 100
▁marker 100
▁relation 100
(0 100
▁come 100
▁sq 100
▁generic 100
requ 100
Float 100
▁hold 100
▁chain 100
CA 100
anguage 100
system 100
(0, 100
▁operations 100
▁interpre 100
STR 100
pattern 100
▁supports 100
▁consumer 100
execute 100
Debug 100
Folder 100
access 100
▁Version 100
▁repr 100
▁goes 100
Sort 100
\" 100
▁choices 100
▁MO 100
1.1 100
▁Non 100
success 100
▁Write 100
▁partner 100
Matrix 100
3/ 100
▁received 100
▁area 100
▁press 100
elow 100
checked 100
▁Rel 100
▁instant 100
oh 100
▁repla 100
none 100
▁64 100
chedule 100
tml 100
▁origin 100
▁plt 100
▁Load 100
▁company 100
89 100
pool 100
attribute 100
▁Module 100
Display 100
▁4. 100
ulation 100
Area 100
Me 100
DA 100
ktop 100
BUG 100
total 100
Strategy 100
onym 100
▁td 100
▁Ret 100
▁router 100
ifiers 100
Struct 100
score 100
ilities 100
▁third 100
▁processing 100
▁git 100
Do 100
▁evaluate 100
▁onCreate 100
springframework 100
network 100
▁cc 100
OF 100
▁distance 100
▁Random 100
▁es 100
register 100
▁May 100
▁timer 100
och 100
▁oprot 100
Vert 100
lier 100
istics 100
custom 100
PTION 100
oving 100
▁getCurrent 100
▁ideas 100
▁att 100
Av 100
▁analy 100
ffect 100
▁exclude 100
ves 100
Admin 100
points 100
▁placeholder 100
▁Sp 100
▁home 100
▁showing 100
▁dump 100
▁indexOf 100
▁according 100
ural 100
▁Current 100
CHE 100
strip 100
**** 100
▁hit 100
This 100
}) 100
.0. 100
job 100
Co 100
Parse 100
condition 100
Grid 100
Wr 100
toString 100
Iter 100
▁low 100
aging 100
▁255 100
▁animation 100
XX 100
▁Script 100
▁Ph 100
called 100
▁contact 100
formed 100
▁services 100
▁Enum 100
scription 100
▁loss 100
▁vol 100
▁slice 100
Len 100
riend 100
▁lik 100
Resources 100
▁xmlns 100
▁pract 100
edit 100
▁tick 100
Role 100
▁express 100
resource 100
▁Cache 100
▁printStackTrace 100
▁Unable 100
▁getParent 100
then 100
iddleware 100
account 100
▁people 100
Sl 100
cell 100
▁Am 100
atient 100
▁Post 100
▁delegate 100
▁pkg 100
▁COM 100
▁decimal 100
Api 100
▁ByteBuffer 100
31 100
Core 100
Messages 100
▁Database 100
▁Trace 100
ateway 100
▁dirname 100
InstanceState 100
ne 100
▁suite 100
izes 100
▁getIn 100
pv 100
idx 100
▁Status 100
ANG 100
▁displayed 100
Cluster 100
▁encoded 100
▁AND 100
▁Linked 100
▁branch 100
▁Bit 100
Delete 100
Internal 100
Us 100
▁latest 100
▁hope 100
imator 100
erefore 100
][ 100
Ver 100
ness 100
▁consum 100
▁alt 100
▁nan 100
▁geom 100
Scroll 100
▁whatever 100
▁basically 100
▁detect 100
Product 100
▁po 100
▁past 100
▁Float 100
Short 100
imension 100
uses 100
ookies 100
47 100
▁easily 100
DD 100
Binding 100
▁unittest 100
▁car 100
StateException 100
65 100
DIR 100
▁''' 100
After 100
▁perfect 100
PUT 100
▁checking 100
▁tar 100
▁tz 100
dep 100
▁translate 100
apis 100
orry 100
▁seed 100
▁GL 100
▁functionality 100
Intent 100
▁creates 100
▁blocks 100
▁TAG 100
▁absolute 100
▁strict 100
WT 100
COM 100
selected 100
▁shard 100
▁Optional 100
imitive 100
▁successfully 100
▁WHERE 100
▁pipeline 100
▁assume 100
▁easier 100
▁wx 100
▁scripts 100
9, 100
std 100
FS 100
xis 100
ised 100
▁getUser 100
▁Let 100
olution 100
▁windows 100
▁42 100
▁depth 100
▁emp 100
Copy 100
▁Call 100
Transform 100
▁speed 100
images 100
▁Iter 100
ivid 100
JAX 100
▁findViewById 100
ClickListener 100
-12 100
xff 100
▁plan 100
▁inline 100
game 100
cii 100
train 100
▁getFile 100
▁fails 100
enario 100
85 100
ager 100
uce 100
▁Validation 100
scribe 100
▁Art 100
application 100
win 100
children 100
TIME 100
▁identifier 100
▁descriptor 100
ublish 100
▁cached 100
▁six 100
long 100
Domain 100
ventory 100
objects 100
▁reload 100
▁8' 100
lied 100
▁commun 100
Serializer 100
▁schedule 100
▁instruction 100
▁implements 100
uc 100
vant 100
channel 100
voke 100
IVE 100
ategories 100
▁:) 100
atio 100
jpg 100
draw 100
losed 100
▁cb 100
PointerException 100
press 100
IM 100
earDown 100
oz 100
▁prompt 100
WN 100
Counter 100
▁included 100
▁secret 100
▁useful 100
vor 100
each 100
course 100
▁servlet 100
Email 100
▁URI 100
'> 100
▁Cl 100
▁moment 100
======== 100
Encoding 100
▁jj 100
metadata 100
FT 100
package 100
▁curr 100
▁LO 100
▁together 100
▁article 100
▁gra 100
▁launch 100
▁age 100
▁suffix 100
Events 100
Font 100
thers 100
▁worker 100
▁hass 100
▁hours 100
{{ 100
alys 100
▁respons 100
adow 100
▁serialize 100
aff 100
tf 100
▁Expected 100
models 100
grid 100
Buf 100
Aggreg 100
ugg 100
▁drag 100
trl 100
ollow 100
Equals 100
▁bo 100
▁edge 100
▁matching 100
onymous 100
nother 100
Background 100
▁Bundle 100
▁leg 100
▁vs 100
entity 100
COL 100
▁popup 100
Rows 100
acon 100
▁terms 100
itter 100
▁choose 100
Right 100
2] 100
▁dummy 100
Network 100
▁Label 100
▁believe 100
LIC 100
atible 100
chn 100
▁finished 100
ios 100
etimes 100
▁correspond 100
Member 100
pred 100
full 100
ded 100
igin 100
CODE 100
pop 100
▁hook 100
orizont 100
▁states 100
ivalent 100
▁sense 100
UNT 100
▁chrome 100
4' 100
binary 100
iness 100
▁forms 100
ench 100
▁1024 100
Route 100
GB 100
WOR 100
▁paint 100
▁Match 100
arr 100
factory 100
▁hostname 100
romise 100
Login 100
description 100
rote 100
artifactId 100
ipeline 100
▁1" 100
jo 100
Partition 100
cert 100
transform 100
common 100
Remove 100
▁dumps 100
Stat 100
iece 100
:00:00 100
▁getH 100
localhost 100
tle 100
Program 100
render 100
▁members 100
Unknown 100
abs 100
dig 100
▁Net 100
alysis 100
LAG 100
recated 100
Zone 100
Converter 100
▁vals 100
▁4, 100
gen 100
▁maximum 100
▁transport 100
ught 100
▁sending 100
▁Rest 100
▁deleted 100
atis 100
▁Calendar 100
▁setValue 100
JE 100
ka 100
▁deser 100
pid 100
▁zeros 100
96 100
internal 100
Temp 100
▁Filter 100
▁sock 100
▁confirm 100
PO 100
nav 100
▁assertNot 100
▁DateTime 100
columns 100
▁Template 100
▁Should 100
incip 100
▁focus 100
9. 100
nail 100
▁efficient 100
▁2) 100
equals 100
Condition 100
datetime 100
dirs 100
VICE 100
▁Be 100
ynamic 100
seconds 100
Author 100
▁0) 100
gt 100
DateTime 100
anner 100
▁mapper 100
▁"1" 100
▁iteration 100
errors 100
▁who 100
though 100
▁statements 100
▁tearDown 100
almost 100
Proto 100
more 100
▁deep 100
▁UPDATE 100
▁Activity 100
▁Layout 100
umbnail 100
▁lineno 100
angular 100
eep 100
▁phone 100
▁browsers 100
Second 100
▁dtypes 100
▁assertAll 100
ELD 100
▁week 100
▁mis 100
▁segment 100
collection 100
▁NULL 100
▁react 100
▁Before 100
antity 100
▁World 100
ots 100
▁addAll 100
▁partial 100
▁weights 100
▁executor 100
▁tre 100
LETE 100
▁inherit 100
▁somew 100
_3 100
▁cross 100
ClassName 100
▁Pr 100
▁plain 100
tags 100
widget 100
▁monitor 100
Library 100
lap 100
groupId 100
▁getAttribute 100
Show 100
NET 100
▁Part 100
AA 100
adcast 100
▁thenReturn 100
▁disabled 100
fit 100
▁destroy 100
groups 100
PAR 100
Attempt 100
▁card 100
▁HashSet 100
▁Xml 100
Flow 100
▁detail 100
Dest 100
eval 100
Layer 100
▁bus 100
Columns 100
▁DO 100
▁browse 100
Exist 100
▁sources 100
▁80 100
ports 100
▁learning 100
ship 100
1234 100
▁others 100
▁Other 100
▁Dat 100
▁31 100
istic 100
▁Which 100
Category 100
googleapis 100
STANCE 100
props 100
Bound 100
▁Red 100
▁Row 100
roke 100
▁urllib 100
rf 100
▁sender 100
▁{" 100
▁deal 100
▁adapter 100
▁remaining 100
▁audio 100
EXT 100
Metrics 100
▁Below 100
fort 100
▁bra 100
▁optional 100
mm 100
▁literal 100
cf 100
FIX 100
jor 100
▁fname 100
pdated 100
▁kernel 100
▁decor 100
validate 100
▁loops 100
fx 100
Flag 100
▁Sort 100
▁yes 100
▁notification 100
lict 100
plotlib 100
soft 100
-4 100
Permission 100
▁endswith 100
▁demo 100
▁Supp 100
mount 100
▁transition 100
iment 100
▁seek 100
95 100
▁promise 100
▁Compar 100
▁Properties 100
▁Stack 100
▁mut 100
____ 100
ropri 100
:4 100
▁matcher 100
▁wrote 100
▁necessary 100
▁learn 100
▁fileName 100
▁10000 100
▁Bytes 100
▁Make 100
▁fun 100
LED 100
▁stub 100
▁Channel 100
▁Cre 100
schema 100
look 100
▁history 100
nodes 100
Ali 100
ism 100
ience 100
▁country 100
▁rm 100
▁AJAX 100
rive 100
${ 100
iffer 100
later 100
▁Virtual 100
raft 100
convert 100
.* 100
-10 100
Environment 100
otion 100
He 100
▁argv 100
▁Parameter 100
▁happening 100
▁Cluster 100
▁compareTo 100
▁dont 100
▁iprot 100
elta 100
ctx 100
andidate 100
Errors 100
▁percent 100
iding 100
Art 100
▁thanks 100
▁23 100
inished 100
▁{{ 100
Desc 100
▁<!-- 100
▁modal 100
atalog 100
Limit 100
EventListener 100
Dep 100
tip 100
uuid 100
▁Media 100
(1 100
▁tenant 100
▁sets 100
▁mer 100
pb 100
SA 100
Operator 100
flags 100
▁permission 100
▁getPath 100
▁black 100
Space 100
▁DEBUG 100
▁Another 100
▁onClick 100
▁capture 100
olve 100
▁serial 100
▁VER 100
▁Em 100
riteria 100
▁400 100
▁Convert 100
▁FA 100
▁clazz 100
users 100
▁Basic 100
apply 100
ournal 100
▁setP 100
▁updates 100
azy 100
matrix 100
▁setS 100
BO 100
▁cp 100
ierarch 100
▁AS 100
▁Because 100
▁timed 100
▁cop 100
ARY 100
/201 100
▁suggestions 100
JECT 100
esh 100
USER 100
▁}} 100
▁important 100
▁ends 100
rot 100
ah 100
Dat 100
Notification 100
▁defaults 100
price 100
▁authentication 100
record 100
▁thrown 100
▁Internal 100
▁duplicate 100
hidden 100
▁proc 100
▁metric 100
ipped 100
[0]. 100
▁incorrect 100
Security 100
4" 100
allow 100
PC 100
upload 100
▁apps 100
▁Maven 100
peat 100
▁pdf 100
year 100
]] 100
▁wondering 100
▁building 100
▁dates 100
zer 100
▁$('. 100
latform 100
ycl 100
▁matter 100
▁parseInt 100
▁roll 100
Allow 100
Mult 100
▁logs 100
▁declare 100
▁haven 100
▁faster 100
▁shutdown 100
▁minutes 100
▁align 100
incipal 100
illa 100
unicode 100
alf 100
▁5, 100
Failed 100
▁outer 100
Consumer 100
-2 100
Same 100
.1. 100
▁declared 100
▁obvious 100
ynchronous 100
▁abstract 100
ACK 100
▁Problem 100
ctype 100
Before 100
ito 100
▁references 100
ale 100
▁GUI 100
▁supposed 100
tog 100
▁%} 100
security 100
ones 100
▁SH 100
▁metrics 100
orizontal 100
TimeMillis 100
▁further 100
Dao 100
▁dropdown 100
DATA 100
UTF 100
volume 100
Checker 100
Binary 100
98 100
▁getSel 100
words 100
Use 100
▁Firefox 100
LASS 100
ooth 100
./ 100
▁tb 100
▁parsing 100
▁appropri 100
ital 100
02 100
ERROR 100
▁along 100
cheduler 100
▁Bas 100
anagement 100
▁credentials 100
▁solutions 100
chart 100
▁End 100
ToString 100
__( 100
▁bb 100
iki 100
debug 100
▁Unknown 100
Join 100
▁rate 100
stop 100
▁cou 100
▁checks 100
▁reply 100
▁stage 100
▁determine 100
▁front 100
▁nd 100
assert 100
▁der 100
▁Back 100
▁white 100
-3 100
planation 100
▁isSet 100
▁TR 100
Global 100
inite 100
ruptedException 100
acts 100
▁Frame 100
Batch 100
▁letter 100
▁terminal 100
▁obt 100
▁packet 100
▁cat 100
Information 100
▁nb 100
Comment 100
prop 100
▁Network 100
▁[" 100
MPTY 100
alance 100
▁depending 100
multi 100
after 100
▁priority 100
insert 100
Sw 100
ylesh 100
." 100
▁1; 100
▁intern 100
▁impl 100
pa 100
font 100
▁summary 100
▁urls 100
▁tk 100
)? 100
▁completely 100
reference 100
parameters 100
eq 100
iginal 100
▁factor 100
▁PO 100
▁maven 100
category 100
▁Vis 100
▁depends 100
wards 100
▁pull 100
ands 100
Snapshot 100
ccept 100
▁webpage 100
▁Address 100
vs 100
▁longer 100
ulk 100
Simple 100
setup 100
uted 100
▁assignment 100
▁invok 100
MetaData 100
ClassLoader 100
serve 100
▁team 100
▁Author 100
Timestamp 100
▁1: 100
changed 100
▁unable 100
mar 100
sample 100
ygon 100
▁cost 100
▁VALUE 100
.1/ 100
batch 100
▁Scan 100
▁SSL 100
exit 100
▁indic 100
▁projects 100
▁manage 100
▁RO 100
▁Settings 100
▁ul 100
QUEST 100
▁Expression 100
▁corresponding 100
EqualTo 100
▁iframe 100
imiter 100
▁distribution 100
ided 100
▁ss 100
scale 100
=1 100
Auto 100
servlet 100
▁5. 100
▁TO 100
rule 100
Rest 100
▁rb 100
Split 100
▁-1 100
enced 100
▁ByteArray 100
▁equivalent 100
cb 100
CS 100
dependency 100
ighb 100
▁picture 100
ral 100
Screen 100
▁watch 100
▁identity 100
▁StringBuffer 100
▁COL 100
attributes 100
▁executable 100
gu 100
fetch 100
▁codes 100
▁Socket 100
▁coordinates 100
▁immedi 100
▁Variable 100
ridge 100
▁calendar 100
▁Min 100
Suite 100
00\ 100
Cert 100
▁Container 100
controller 100
Namespace 100
orary 100
Div 100
▁cover 100
abilities 100
▁giving 100
ArrayList 100
▁across 100
▁Select 100
▁manifest 100
▁99 100
▁populate 100
▁qs 100
gnite 100
▁"< 100
▁INFO 100
▁300 100
react 100
compl 100
aming 100
▁DataFrame 100
acebook 100
▁otherwise 100
Lower 100
Renderer 100
Rate 100
▁sparse 100
limit 100
Py 100
▁'1' 100
impl 100
▁Common 100
ohn 100
CONT 100
Accessor 100
▁tt 100
▁maint 100
▁known 100
atively 100
GL 100
IgnoreCase 100
▁power 100
Off 100
ued 100
NI 100
▁prints 100
fortun 100
ining 100
aconda 100
▁ready 100
regex 100
CC 100
▁likely 100
Pop 100
▁mobile 100
▁helper 100
▁od 100
ifications 100
eting 100
background 100
▁including 100
▁wrapped 100
download 100
folder 100
variable 100
cut 100
:1 100
▁solved 100
Single 100
▁Maybe 100
▁Prot 100
▁digits 100
UTH 100
▁AP 100
lying 100
▁|= 100
mat 100
▁<? 100
lask 100
stit 100
▁Basically 100
▁processor 100
▁conv 100
▁getInt 100
engine 100
Look 100
inate 100
▁encrypt 100
compile 100
▁unpack 100
▁Spec 100
ipient 100
Expr 100
▁restart 100
67 100
▁tested 100
▁glob 100
Bl 100
Focus 100
▁containsKey 100
▁JVM 100
UND 100
▁Are 100
resources 100
▁hour 100
cdn 100
▁negative 100
redicate 100
▁connected 100
ividual 100
Received 100
hook 100
▁executing 100
▁bitField 100
▁constants 100
▁clicking 100
▁Ever 100
ducer 100
▁Where 100
itespace 100
served 100
Depend 100
ws 100
Entries 100
")); 100
▁Rect 100
decode 100
features 100
ayers 100
comment 100
▁setProperty 100
entially 100
6/ 100
▁soft 100
▁diag 100
▁USER 100
ulator 100
▁JSONObject 100
▁getBytes 100
ently 100
▁Security 100
Exists 100
NER 100
author 100
▁Lib 100
▁resolved 100
▁Menu 100
▁[1, 100
▁getNode 100
lt 100
lan 100
pute 100
Score 100
▁Files 100
ummy 100
="@ 100
▁startsWith 100
▁goal 100
▁Yes 100
▁Hibernate 100
atisf 100
▁compil 100
▁mysql 100
hide 100
▁predict 100
▁pytest 100
logger 100
directory 100
Cursor 100
Begin 100
▁servers 100
SSION 100
History 100
inux 100
▁programming 100
Cancel 100
XT 100
Section 100
sgi 100
▁getT 100
normal 100
▁Location 100
second 100
proxy 100
FORM 100
0000000 100
▁assigned 100
checkbox 100
▁converted 100
haps 100
▁CH 100
anced 100
trace 100
▁eclipse 100
▁anchor 100
labels 100
▁stmt 100
▁'/ 100
▁BigDecimal 100
paths 100
▁light 100
▁getLocal 100
scal 100
Contents 100
Formatter 100
LS 100
▁lst 100
▁trouble 100
▁PsiElement 100
▁Traceback 100
aves 100
▁setName 100
wrapper 100
move 100
beans 100
REATE 100
{" 100
fd 100
▁chars 100
maps 100
Stop 100
FileName 100
▁adjust 100
▁1' 100
ylesheet 100
▁hist 100
omcat 100
▁thrift 100
Random 100
▁getResource 100
Cred 100
requency 100
▁AR 100
▁obtain 100
▁TH 100
▁queries 100
1> 100
▁vars 100
500 100
ARN 100
▁rt 100
▁bounds 100
▁customer 100
Fix 100
▁Second 100
▁against 100
screen 100
▁Dist 100
dt 100
▁runner 100
pdir 100
contains 100
▁mess 100
Rad 100
actions 100
▁separator 100
Day 100
▁met 100
fortunately 100
▁sqrt 100
Listen 100
▁getField 100
Transport 100
▁appropriate 100
Wait 100
vals 100
▁poll 100
stats 100
▁blue 100
Full 100
Hello 100
exist 100
▁1.1 100
▁dimension 100
5" 100
▁cloud 100
orn 100
▁currency 100
▁22 100
▁They 100
▁sem 100
Flags 100
global 100
▁mp 100
▁Mac 100
modal 100
▁subnet 100
utf 100
▁Ap 100
Prop 100
DU 100
PU 100
.0.0.1 100
▁usually 100
crement 100
▁Delete 100
attrs 100
▁Observable 100
▁getAll 100
dr 100
▁parallel 100
Android 100
▁highlight 100
▁zoom 100
vc 100
▁StringUtils 100
apes 100
track 100
yy 100
Present 100
▁Reference 100
signed 100
▁dr 100
▁:: 100
Edge 100
Plan 100
cedure 100
HashMap 100
▁piece 100
Agent 100
▁EMPTY 100
▁Something 100
▁colors 100
▁feel 100
messages 100
▁average 100
azon 100
▁Exchange 100
FIG 100
▁While 100
PS 100
develop 100
▁'0' 100
Extra 100
▁Route 100
▁(" 100
84 100
Save 100
▁JPanel 100
ATOR 100
▁cm 100
▁{% 100
▁transfer 100
samples 100
▁More 100
▁recursive 100
▁Return 100
Shape 100
eme 100
bootstrap 100
▁Num 100
▁AT 100
exe 100
▁peer 100
▁practice 100
ving 100
Literal 100
orth 100
PORT 100
Direct 100
fa 100
74 100
hape 100
Groups 100
▁perfectly 100
▁crash 100
▁scenario 100
(? 100
▁targets 100
:" 100
▁MET 100
policy 100
▁holder 100
▁alternative 100
raction 100
rivile 100
▁Logger 100
▁stuck 100
covery 100
Raw 100
▁Account 100
avail 100
Year 100
strument 100
▁3.0 100
Objects 100
▁minimum 100
izing 100
▁overr 100
rr 100
▁CSV 100
ric 100
secs 100
▁trick 100
innerHTML 100
swer 100
▁Product 100
▁Arg 100
Remote 100
ByName 100
▁Dep 100
▁shift 100
▁Book 100
Br 100
▁devices 100
illi 100
Invalid 100
Register 100
Actions 100
LOCK 100
>(); 100
▁repeat 100
ensitive 100
▁Copy 100
ersistence 100
▁blob 100
▁Void 100
▁getContext 100
../ 100
5) 100
▁square 100
mult 100
▁Term 100
events 100
▁IDE 100
▁Level 100
posite 100
▁bot 100
Packet 100
ossible 100
9999 100
54 100
▁Remove 100
▁Mem 100
▁managed 100
Person 100
ored 100
▁handling 100
cur 100
Complete 100
▁couldn 100
')) 100
mapping 100
Dispatch 100
▁fmt 100
yper 100
▁HttpServlet 100
▁Ipv 100
ryption 100
overflow 100
")) 100
▁CONT 100
arb 100
ializable 100
▁restri 100
▁cli 100
Dig 100
▁creation 100
CL 100
▁Sk 100
▁relevant 100
▁charAt 100
▁REST 100
']) 100
▁techn 100
align 100
final 100
erred 100
Inner 100
▁permissions 100
LY 100
▁Meta 100
▁impro 100
▁Servlet 100
▁spaces 100
▁Pattern 100
QU 100
▁subclass 100
AVA 100
▁directive 100
▁followed 100
iven 100
▁requested 100
acle 100
Methods 100
(1, 100
▁completed 100
▁provides 100
▁resize 100
▁singleton 100
▁connections 100
once 100
▁Transaction 100
']. 100
Detail 100
▁TABLE 100
▁ws 100
omes 100
Owner 100
agraph 100
▁includes 100
▁Decimal 100
▁bt 100
▁tail 100
▁rev 100
uages 100
▁0.00 100
canvas 100
ASK 100
▁flask 100
Man 100
CI 100
▁pending 100
▁fc 100
dom 100
▁MIN 100
▁Conn 100
▁lif 100
▁plugins 100
▁purpose 100
▁explicitly 100
Visibility 100
▁Objects 100
▁ec 100
gl 100
▁basename 100
outing 100
▁handlers 100
▁timezone 100
▁retry 100
▁precision 100
desc 100
▁getItem 100
▁Def 100
Axis 100
Le 100
▁getTime 100
▁linked 100
dtype 100
UC 100
▁Boot 100
AST 100
pair 100
▁den 100
▁Has 100
04 100
00000000 100
dn 100
▁getColumn 100
Chart 100
▁concept 100
▁authentic 100
IF 100
Symbol 100
▁MySQL 100
help 100
abc 100
▁Sim 100
Visitor 100
lare 100
▁setattr 100
▁Async 100
SSAGE 100
Pol 100
▁concaten 100
▁serializer 100
▁ear 100
variables 100
▁Tuple 100
MIN 100
▁These 100
▁Each 100
Det 100
TEST 100
Required 100
real 100
ierarchy 100
▁toggle 100
69 100
▁ImmutableList 100
Word 100
▁getStatus 100
sun 100
▁dd 100
▁xx 100
▁Wr 100
▁1234 100
▁conditions 100
Timer 100
[: 100
▁Generic 100
▁Init 100
he 100
▁getE 100
ebook 100
role 100
▁visibility 100
▁lex 100
▁unless 100
▁Bad 100
wait 100
Cl 100
▁greater 100
▁Assertion 100
▁rename 100
▁Sign 100
▁HttpResponse 100
Paths 100
mean 100
href 100
▁Us 100
▁waiting 100
ogram 100
▁conc 100
▁Locale 100
oreign 100
ByteArray 100
▁sun 100
▁2: 100
▁prediction 100
▁Plugin 100
include 100
warning 100
▁fieldName 100
Tuple 100
▁Once 100
pletion 100
▁coll 100
Import 100
-02 100
▁whenever 100
ons 100
Sql 100
rd 100
Card 100
▁rendered 100
▁computer 100
atter 100
▁isValid 100
▁nice 100
▁getChild 100
▁prime 100
▁extensions 100
▁Perm 100
▁[[ 100
Authentication 100
▁comparison 100
arshaller 100
uous 100
5678 100
High 100
▁png 100
▁camel 100
django 100
▁nav 100
▁live 100
OB 100
NOT 100
▁inspect 100
▁entrySet 100
but 100
Scale 100
Book 100
2.7/ 100
onical 100
External 100
▁camera 100
Opt 100
URCE 100
storage 100
Contains 100
▁getContent 100
activ 100
tuple 100
encoding 100
etic 100
▁archive 100
▁Mark 100
▁unexpected 100
▁newInstance 100
▁regard 100
xFF 100
▁touch 100
▁situation 100
exists 100
ula 100
▁backup 100
▁Mat 100
fire 100
Mask 100
▁somewhere 100
bsolute 100
▁normalize 100
▁sus 100
▁Final 100
▁sin 100
ks 100
MIT 100
▁initialized 100
▁leave 100
diff 100
▁describe 100
5' 100
▁deg 100
▁SV 100
▁couple 100
▁baz 100
▁requirement 100
Print 100
LOW 100
assign 100
87 100
ulated 100
▁integers 100
complete 100
▁Acc 100
auto 100
Two 100
Month 100
Assign 100
▁selenium 100
7.0.0.1 100
▁city 100
bb 100
▁beginning 100
Idx 100
inf 100
▁sometimes 100
▁Inet 100
▁Schema 100
ially 100
prototype 100
Animation 100
▁Tr 100
report 100
▁'0 100
▁CONF 100
proto 100
," 100
coming 100
Points 100
▁Pol 100
▁toArray 100
ALID 100
▁datas 100
clean 100
hello 100
▁SET 100
▁Swing 100
scroll 100
▁'< 100
uffle 100
▁manip 100
▁isEqualTo 100
mac 100
▁cells 100
ned 100
bean 100
invalid 100
▁PATH 100
sn 100
raises 100
MD 100
GI 100
bot 100
!! 100
Chain 100
▁US 100
▁"1 100
details 100
Preferences 100
Validator 100
▁atom 100
▁StringIO 100
▁Unicode 100
▁understanding 100
clo 100
elements 100
▁'1 100
Collect 100
▁TextView 100
▁setTimeout 100
▁"201 100
▁SER 100
▁organ 100
simple 100
▁seg 100
▁scheduler 100
RAY 100
▁shouldn 100
▁clicks 100
▁iterable 100
▁Operation 100
ATUS 100
...) 100
▁cols 100
▁cookies 100
hand 100
Constructor 100
opts 100
Real 100
clear 100
zero 100
▁ignored 100
▁bootstrap 100
▁removing 100
▁prototype 100
Tx 100
Commit 100
:/ 100
AIN 100
pm 100
▁mind 100
dest 100
▁digest 100
▁Character 100
▁recogn 100
▁yourself 100
DTO 100
uples 100
ialect 100
., 100
dp 100
agent 100
▁getElement 100
mployee 100
MBER 100
components 100
▁Remote 100
▁collections 100
quot 100
▁compiled 100
Sync 100
oub 100
▁constraint 100
Validation 100
▁getMax 100
▁criter 100
▁VM 100
>> 100
udit 100
▁reshape 100
Media 100
ledge 100
▁Constants 100
chan 100
▁pad 100
▁entities 100
▁ON 100
clusive 100
toggle 100
au 100
etype 100
▁Have 100
master 100
▁PDF 100
▁combine 100
▁realm 100
Bus 100
▁Apache 100
acing 100
2.0 100
Sk 100
nn 100
▁somehow 100
▁cos 100
▁Step 100
Vertex 100
iving 100
around 100
▁emit 100
▁thus 100
▁Bean 100
▁asynchronous 100
▁Bar 100
Such 100
inct 100
▁matplotlib 100
tests 100
repeat 100
▁PI 100
▁retval 100
▁units 100
▁Standard 100
▁setEnabled 100
▁annotations 100
▁green 100
Inv 100
▁certificate 100
▁assertNull 100
▁various 100
▁quotes 100
▁solid 100
It 100
done 100
ifiable 100
▁formats 100
BUT 100
▁Notification 100
▁reach 100
TestCase 100
icult 100
▁filtered 100
iases 100
uge 100
▁radius 100
▁interfaces 100
umes 100
▁heap 100
-03 100
Bits 100
▁sr 100
▁Range 100
Usage 100
Price 100
video 100
▁pairs 100
▁middle 100
Lat 100
Db 100
▁taking 100
▁Auto 100
▁online 100
▁testCase 100
Weight 100
▁Down 100
▁training 100
endor 100
▁measure 100
▁mist 100
effect 100
▁sym 100
present 100
▁UUID 100
ycler 100
crete 100
Home 100
uckets 100
▁coding 100
57 100
ORY 100
racle 100
▁Gr 100
Period 100
fc 100
▁Currently 100
LOG 100
▁timedelta 100
router 100
dfs 100
▁BigInteger 100
quote 100
▁ascii 100
▁intro 100
▁radio 100
uffix 100
Lines 100
based 100
More 100
▁AL 100
Classes 100
Tags 100
▁gc 100
▁aa 100
tmp 100
Segment 100
▁immediately 100
epar 100
sheet 100
MI 100
▁routing 100
256 100
▁getN 100
▁Of 100
▁(( 100
READ 100
▁expire 100
▁classpath 100
▁fiddle 100
▁Mon 100
▁ur 100
▁looked 100
Border 100
rappe 100
izard 100
▁strategy 100
▁"0 100
▁linear 100
ADER 100
▁traceback 100
▁BufferedReader 100
▁Environment 100
:3 100
▁SC 100
5/ 100
▁repeated 100
▁'201 100
Upload 100
10, 100
▁Instance 100
views 100
▁twice 100
TAG 100
GE 100
loor 100
related 100
"} 100
Contact 100
bum 100
▁rhs 100
▁Ok 100
▁pc 100
ja 100
El 100
Exit 100
▁Course 100
▁suggested 100
FX 100
--- 100
▁explanation 100
▁overflow 100
▁Fake 100
▁frappe 100
▁setContent 100
orer 100
▁capacity 100
TRI 100
AY 100
ocom 100
▁respect 100
tick 100
▁formatter 100
('/ 100
tools 100
▁FILE 100
ROUP 100
AMP 100
▁Don 100
▁threshold 100
emp 100
▁callable 100
▁Hel 100
Capacity 100
▁LE 100
hibernate 100
▁ge 100
▁four 100
cluded 100
Send 100
▁Ansible 100
▁templates 100
▁21 100
chain 100
RED 100
▁almost 100
▁today 100
▁development 100
ACT 100
▁asking 100
cuss 100
▁getV 100
Loop 100
cls 100
Props 100
▁pag 100
library 100
▁individual 100
▁searching 100
Factor 100
4) 100
▁getG 100
▁printing 100
▁bases 100
▁asset 100
correct 100
configuration 100
CONDS 100
icrosoft 100
LAY 100
iform 100
ATCH 100
else 100
PACE 100
▁TimeUnit 100
▁tax 100
Delay 100
Many 100
VC 100
▁xpath 100
ibling 100
eration 100
▁artifact 100
▁expressions 100
DEFAULT 100
▁Storage 100
▁logged 100
▁ssh 100
▁soup 100
▁behaviour 100
elcome 100
ibly 100
-11 100
seq 100
▁configured 100
▁consist 100
Listeners 100
▁ImportError 100
esting 100
▁ran 100
Shard 100
▁Qgs 100
ceptor 100
▁came 100
▁away 100
]); 100
Abstract 100
▁closing 100
Assert 100
-04 100
ssl 100
Signature 100
Eval 100
▁Sample 100
DEX 100
jdbc 100
route 100
▁slot 100
Qual 100
ieved 100
see 100
ba 100
pdf 100
▁IS 100
▁cent 100
mer 100
Play 100
▁samples 100
▁Sql 100
▁applications 100
234 100
Chunk 100
▁deprecated 100
answ 100
commit 100
ircle 100
cker 100
public 100
▁hover 100
▁slug 100
▁($ 100
conditions 100
58 100
exc 100
available 100
alan 100
▁updating 100
Gui 100
▁404 100
lu 100
iles 100
LD 100
+" 100
Attach 100
Fail 100
▁oauth 100
rypto 100
LowerCase 100
untu 100
Env 100
Services 100
▁room 100
asp 100
lause 100
▁angle 100
▁occurs 100
▁Find 100
▁TIME 100
EB 100
▁places 100
'} 100
"), 100
▁AN 100
ipy 100
▁keySet 100
▁Argument 100
▁INSTANCE 100
▁anyway 100
▁Queue 100
▁mm 100
▁Scanner 100
▁rgb 100
▁bs 100
Enter 100
stat 100
Static 100
Tasks 100
require 100
?? 100
/. 100
Math 100
▁adds 100
▁dns 100
▁tableName 100
▁rank 100
▁setC 100
▁pickle 100
▁layers 100
END 100
wt 100
fail 100
▁AssertionError 100
▁Tensor 100
complish 100
▁JDK 100
before 100
="/ 100
▁matched 100
▁Game 100
when 100
▁processed 100
panel 100
▁getX 100
invoke 100
▁becomes 100
▁sequ 100
andlers 100
▁AB 100
month 100
imap 100
SSL 100
▁declaration 100
▁requirements 100
?> 100
▁ct 100
gy 100
DBC 100
ivery 100
ocity 100
▁90 100
▁conversion 100
Duration 100
▁Iterable 100
rations 100
▁board 100
MODE 100
▁tabs 100
)] 100
drop 100
reset 100
ONG 100
Rol 100
lookup 100
▁stock 100
itional 100
▁LOGGER 100
▁BY 100
▁sheet 100
INFO 100
▁Syntax 100
▁Linux 100
Submit 100
▁Cons 100
▁fixture 100
loyment 100
Constraint 100
RENT 100
▁become 100
ashboard 100
▁aren 100
sequ 100
▁causing 100
KE 100
▁accomplish 100
▁restore 100
notations 100
▁major 100
▁cd 100
▁SDK 100
_4 100
Arguments 100
Pass 100
▁sto 100
Marker 100
MT 100
Drawable 100
▁Flask 100
▁setdefault 100
hip 100
▁PRE 100
olved 100
ners 100
enames 100
3: 100
rocess 100
▁getParameter 100
▁processes 100
VERSION 100
▁hosts 100
▁friend 100
▁applied 100
sq 100
pn 100
▁tile 100
paces 100
▁RuntimeError 100
▁aggregate 100
Comparator 100
required 100
ampl 100
▁associated 100
▁Child 100
flag 100
maven 100
Bind 100
Used 100
loss 100
.$ 100
.0, 100
▁fully 100
Modified 100
Matcher 100
▁waitFor 100
Place 100
Func 100
WORD 100
▁Like 100
▁Question 100
Depth 100
Html 100
eh 100
▁verb 100
Connector 100
▁mid 100
▁imported 100
Constraints 100
Lookup 100
ipping 100
RY 100
▁trust 100
Available 100
-05 100
▁Atomic 100
▁Bitmap 100
▁github 100
▁OF 100
enchmark 100
▁?> 100
8' 100
sequence 100
Writable 100
▁getLast 100
▁Found 100
▁moving 100
ses 100
hes 100
you 100
CHAR 100
elem 100
▁production 100
▁OutputStream 100
Kind 100
▁revision 100
enum 100
OO 100
▁positive 100
byte 100
▁2000 100
▁listeners 100
acc 100
Series 100
▁ansible 100
▁Api 100
▁raises 100
player 100
▁IM 100
Ip 100
▁mv 100
icles 100
▁Dialog 100
▁rpc 100
Delegate 100
aemon 100
two 100
cceed 100
▁chat 100
▁visitor 100
▁evt 100
timestamp 100
Summary 100
▁anim 100
posed 100
inity 100
Other 100
__. 100
prep 100
▁flavor 100
▁Host 100
▁thinking 100
rase 100
media 100
▁Stop 100
▁yaml 100
▁[{ 100
▁advice 100
▁adapt 100
▁difficult 100
▁invoice 100
▁36 100
contents 100
awt 100
Encoder 100
car 100
DataSource 100
sys 100
▁fold 100
FIELD 100
Mouse 100
▁assuming 100
links 100
▁kill 100
▁suggestion 100
▁JQuery 100
afka 100
▁clip 100
INF 100
▁ES 100
Move 100
Exchange 100
frames 100
▁256 100
activity 100
▁meaning 100
ha 100
▁opened 100
▁Ajax 100
▁Matrix 100
97 100
Worker 100
reh 100
lambda 100
▁clf 100
▁cx 100
enabled 100
eometry 100
▁compress 100
Insert 100
▁123 100
aper 100
▁therefore 100
▁domainObject 100
lyph 100
inator 100
chase 100
cap 100
▁interpreter 100
▁saying 100
COUNT 100
NU 100
ication 100
▁Up 100
▁flex 100
ease 100
▁cleanup 100
yped 100
▁letters 100
▁wish 100
parts 100
▁10, 100
▁(! 100
▁ls 100
▁Debug 100
▁fe 100
Final 100
tt 100
Amount 100
aching 100
bc 100
▁Mult 100
▁family 100
term 100
▁bu 100
mouse 100
Uuid 100
▁Global 100
▁sha 100
▁egg 100
TypeId 100
▁rotate 100
▁transl 100
▁vertical 100
▁greatly 100
RC 100
▁aff 100
avigation 100
oice 100
spection 100
World 100
▁poly 100
▁circle 100
▁upon 100
gre 100
▁connector 100
▁Ignite 100
▁helpful 100
clou 100
allen 100
Language 100
gers 100
So 100
ackson 100
Bitmap 100
MQ 100
▁Right 100
rees 100
iced 100
▁HE 100
lah 100
▁Article 100
ovy 100
aker 100
▁ptr 100
▁MS 100
▁mix 100
Character 100
writer 100
Diff 100
SERT 100
Dto 100
MM 100
▁geo 100
▁attached 100
▁Top 100
Tracker 100
509 100
cpu 100
▁getFirst 100
Ptr 100
ooser 100
▁{0 100
Refresh 100
▁posted 100
▁material 100
▁pt 100
gi 100
your 100
extract 100
HTTP 100
▁hint 100
:10 100
▁journal 100
NODE 100
▁produce 100
▁markup 100
▁opening 100
VENT 100
▁Pair 100
▁numeric 100
rev 100
aped 100
▁numberOf 100
▁displays 100
(1) 100
▁JAX 100
▁Annotation 100
▁bg 100
rest 100
native 100
▁pa 100
▁userId 100
reduce 100
▁replic 100
urface 100
▁EN 100
console 100
▁Display 100
Monitor 100
glish 100
picker 100
Acc 100
rect 100
sest 100
Producer 100
amma 100
▁posts 100
hi 100
▁pygame 100
cookie 100
▁entered 100
▁threading 100
loading 100
Connect 100
roovy 100
force 100
▁thumbnail 100
▁beans 100
▁Depend 100
▁coming 100
▁getNext 100
backend 100
▁languages 100
▁ant 100
▁counts 100
▁Cloud 100
▁frames 100
▁maps 100
▁printed 100
▁scra 100
etween 100
▁often 100
4/ 100
▁esc 100
:' 100
▁Enter 100
ooter 100
Filename 100
▁AC 100
▁his 100
▁reject 100
▁Promise 100
▁pixels 100
iet 100
▁PY 100
▁Player 100
▁instructions 100
▁buff 100
Combo 100
▁dc 100
▁categories 100
▁compreh 100
▁myself 100
awn 100
▁cant 100
arant 100
▁Click 100
▁xy 100
.__ 100
fe 100
▁tp 100
iol 100
Help 100
forEach 100
rece 100
▁tv 100
Upper 100
▁miss 100
Gr 100
('. 100
▁indexes 100
▁responses 100
Setting 100
TED 100
ysical 100
▁VERSION 100
▁encounter 100
▁clients 100
oost 100
▁Execution 100
▁Sm 100
_1_ 100
▁Callback 100
▁ME 100
▁arange 100
▁appreciate 100
▁hop 100
▁Short 100
Receiver 100
criptors 100
Gen 100
▁candidate 100
▁$(". 100
codes 100
STRING 100
▁dx 100
00, 100
autif 100
ivers 100
▁reads 100
caught 100
▁testGet 100
▁beta 100
▁secure 100
▁Header 100
Inject 100
▁Unexpected 100
▁accur 100
▁Port 100
▁rendering 100
Bro 100
extension 100
Has 100
▁getSh 100
det 100
eak 100
reader 100
("/ 100
03 100
▁contrib 100
▁calc 100
perm 100
browser 100
▁Even 100
va 100
▁Git 100
▁Mockito 100
▁aws 100
▁Utils 100
direct 100
Constant 100
▁rid 100
▁STRING 100
▁attrib 100
Closed 100
▁PA 100
▁Store 100
chemy 100
atisfied 100
BY 100
▁finding 100
▁replaced 100
▁klass 100
double 100
EC 100
▁getHeight 100
▁8" 100
▁registered 100
▁queryset 100
FLAG 100
Net 100
erc 100
Initialized 100
▁Ver 100
▁subscription 100
▁declar 100
▁formatted 100
platform 100
▁eg 100
▁Tomcat 100
▁getWidth 100
slice 100
▁END 100
att 100
radio 100
▁IOError 100
▁Only 100
▁Package 100
ales 100
eam 100
urls 100
▁addresses 100
▁Rectangle 100
chemas 100
▁Max 100
▁6, 100
Redirect 100
▁employee 100
▁Mapp 100
▁Mongo 100
▁Tool 100
▁converter 100
uby 100
▁[0 100
hr 100
▁Demo 100
▁0.2 100
+1 100
wall 100
UMN 100
Arr 100
▁phase 100
?) 100
eces 100
iling 100
Execute 100
▁Editor 100
ftime 100
▁sentence 100
single 100
Sample 100
▁bitmap 100
Aut 100
▁deployment 100
high 100
ational 100
▁axes 100
ado 100
perature 100
▁cn 100
▁Empty 100
rules 100
▁half 100
ozilla 100
▁VI 100
ii 100
▁blog 100
▁Login 100
eets 100
ADD 100
▁28 100
ildcard 100
dispatch 100
MAX 100
▁chunks 100
▁Pass 100
calls 100
Bag 100
123 100
▁brack 100
=0; 100
▁Target 100
ssue 100
▁6. 100
database 100
▁26 100
▁getObject 100
▁Pandas 100
DT 100
operator 100
nb 100
▁CREATE 100
09 100
IGHT 100
▁], 100
▁Parser 100
dx 100
▁described 100
zen 100
Observer 100
▁Core 100
▁1.5 100
▁ACTION 100
When 100
autiful 100
▁intValue 100
▁ALL 100
▁JFrame 100
▁documents 100
voice 100
▁soon 100
Tick 100
▁vertex 100
bad 100
08 100
redirect 100
icator 100
▁pot 100
▁lazy 100
▁nn 100
42 100
▁luck 100
that 100
Touch 100
▁Ind 100
▁comma 100
▁ordered 100
shake 100
▁implementing 100
▁slider 100
▁Active 100
imits 100
▁Put 100
:30 100
TextField 100
urred 100
▁Control 100
▁renderer 100
▁Record 100
▁setOn 100
Throw 100
▁NoSuch 100
▁wouldn 100
▁mount 100
▁astype 100
itted 100
services 100
▁aware 100
#### 100
▁floating 100
sect 100
▁readable 100
cloudf 100
▁asked 100
▁LinkedList 100
elocity 100
▁taken 100
Created 100
rew 100
▁Toast 100
Running 100
▁texture 100
▁Well 100
▁putting 100
▁Struct 100
▁wall 100
▁imag 100
▁dirs 100
▁Protocol 100
IST 100
▁downloaded 100
▁registration 100
▁subscri 100
uplicate 100
laps 100
ova 100
DOM 100
Any 100
▁swap 100
Calendar 100
:2 100
▁tom 100
getitem 100
▁Doc 100
Analy 100
bottom 100
Clean 100
uzz 100
▁causes 100
seud 100
="" 100
▁delimiter 100
▁attachment 100
person 100
many 100
▁confused 100
▁minute 100
▁trunc 100
BE 100
▁getState 100
inputs 100
▁offer 100
alt 100
Compl 100
▁checker 100
▁getProject 100
found 100
▁pure 100
Checked 100
▁nod 100
▁receiver 100
Feed 100
▁ctypes 100
kt 100
▁dy 100
-5 100
without 100
Blocks 100
tpl 100
▁checkNotNull 100
Game 100
LIST 100
INTER 100
▁edges 100
▁$_ 100
▁saving 100
BLE 100
TagName 100
▁payment 100
▁stdin 100
cest 100
▁acquire 100
▁locations 100
▁successful 100
▁OSError 100
Arch 100
▁visual 100
licated 100
cons 100
▁docker 100
akes 100
asy 100
▁OP 100
Warnings 100
-06 100
▁resulting 100
Supp 100
lapse 100
▁ValidationError 100
sBy 100
Utilities 100
▁EC 100
Fac 100
Stage 100
▁Altern 100
▁Gu 100
created 100
▁micro 100
Comparison 100
"+ 100
▁translation 100
Finished 100
▁dispose 100
DN 100
▁absent 100
▁upgrade 100
▁sound 100
amount 100
▁Border 100
EP 100
ader 100
▁Controller 100
interface 100
▁Repository 100
Done 100
▁Timestamp 100
▁converting 100
UST 100
STATE 100
▁hi 100
▁"0" 100
Expected 100
cludes 100
elli 100
atar 100
▁criteria 100
cred 100
cloudflare 100
▁allocate 100
asc 100
repared 100
▁XContent 100
=[ 100
stylesheet 100
irth 100
0) 100
▁tries 100
produ 100
▁Program 100
cdnjs 100
▁displaying 100
▁scene 100
apture 100
arshal 100
▁orient 100
ongs 100
indices 100
]+ 100
▁Draw 100
▁defaultValue 100
uman 100
▁isDebug 100
catch 100
APP 100
▁setAttribute 100
alert 100
-07 100
Paint 100
▁conflict 100
▁sudo 100
▁10. 100
ancy 100
▁digit 100
▁getApplication 100
buntu 100
▁copied 100
osite 100
Performed 100
▁compat 100
alias 100
▁getDis 100
▁pm 100
▁increase 100
▁ipv 100
2> 100
▁Device 100
Master 100
▁channels 100
▁party 100
UUID 100
▁typed 100
▁ResultSet 100
999 100
Separ 100
▁Unfortunately 100
▁Future 100
Fr 100
▁abspath 100
dialog 100
▁dl 100
Compat 100
forward 100
olders 100
▁Rule 100
▁behind 100
compare 100
1', 100
▁WARN 100
▁review 100
▁deserialize 100
watch 100
▁serialized 100
selector 100
ertools 100
SULT 100
aight 100
▁flatten 100
▁128 100
▁anonymous 100
▁2018 100
LENG 100
3] 100
▁7, 100
usage 100
▁hadoop 100
ocab 100
▁Memory 100
cols 100
▁[0, 100
▁Next 100
▁Cell 100
Scan 100
Ctrl 100
Gu 100
>, 100
CAL 100
▁arrow 100
interval 100
ategor 100
▁smaller 100
Components 100
▁DELETE 100
TA 100
TextView 100
feed 100
DAO 100
Than 100
mysql 100
▁catalog 100
▁Linear 100
adoc 100
05 100
▁getSource 100
▁100%; 100
vector 100
afari 100
▁getStart 100
short 100
▁roles 100
▁gradient 100
ference 100
ributed 100
Center 100
learn 100
▁Go 100
unique 100
language 100
ai 100
ili 100
▁producer 100
FE 100
▁storing 100
AsString 100
▁management 100
▁imports 100
▁avail 100
▁Font 100
bases 100
▁years 100
▁2019 100
06 100
▁experience 100
▁Dimension 100
▁temporary 100
▁4.0 100
▁styles 100
UCCESS 100
▁Show 100
▁triggered 100
▁', 100
▁cond 100
7) 100
▁expla 100
▁attempting 100
▁VirtualFile 100
cloud 100
provider 100
▁alter 100
Popup 100
▁excel 100
▁Graphics 100
printStackTrace 100
▁Native 100
Labels 100
43 100
Measure 100
▁svg 100
▁workaround 100
CATION 100
Mac 100
ograph 100
▁combin 100
▁Tab 100
permission 100
▁straight 100
jsp 100
▁dimensions 100
▁ff 100
VALID 100
▁Running 100
uts 100
-6 100
▁sd 100
▁100% 100
101 100
DataFrame 100
▁Over 100
ANT 100
▁ans 100
▁getRoot 100
▁getSelected 100
▁theme 100
ecycle 100
Addr 100
▁Me 100
▁Adding 100
Video 100
▁validator 100
▁", 100
▁Camel 100
cursor 100
▁newBuilder 100
osen 100
▁Parent 100
Site 100
OutOf 100
atable 100
▁analysis 100
HttpRequest 100
PREFIX 100
▁High 100
▁recover 100
▁Finally 100
▁8, 100
versed 100
▁relationship 100
idence 100
▁walk 100
▁referenced 100
▁Packet 100
▁APP 100
▁2017 100
▁notNull 100
Instruction 100
▁activate 100
▁newValue 100
ChangeListener 100
itles 100
▁ctxt 100
▁debugging 100
Bucket 100
▁FileSystem 100
peg 100
▁skb 100
▁replacement 100
▁dp 100
TEXT 100
LENGTH 100
▁constraints 100
Chars 100
▁divs 100
▁debugger 100
▁IndexError 100
▁JAVA 100
▁maintain 100
Ms 100
Algorithm 100
▁psi 100
▁Single 100
ensors 100
phab 100
▁Install 100
▁routes 100
▁logical 100
▁clock 100
▁ic 100
gres 100
▁representation 100
▁notice 100
▁keywords 100
Identity 100
ARD 100
pick 100
▁pom 100
▁fa 100
lave 100
▁linux 100
Fixed 100
Syntax 100
▁lt 100
▁PAR 100
▁jobs 100
addEventListener 100
Decoder 100
CLASS 100
series 100
▁mechan 100
▁Condition 100
▁face 100
▁tc 100
▁pressed 100
Fiddle 100
Unless 100
▁doctype 100
tasks 100
Cmd 100
▁guid 100
hover 100
phone 100
▁embedded 100
icial 100
▁Mouse 100
editor 100
blob 100
▁occur 100
note 100
▁WS 100
ees 100
oog 100
secre 100
▁guarant 100
SOURCE 100
▁keyboard 100
reet 100
asing 100
▁slide 100
▁decorator 100
entries 100
▁patterns 100
/2.1 100
orph 100
iterator 100
-1. 100
ITH 100
▁Unit 100
▁fl 100
Jar 100
Grad 100
▁overwrite 100
ptr 100
-08 100
▁plus 100
irror 100
ousel 100
▁lhs 100
expr 100
▁scanner 100
dot 100
Note 100
detail 100
▁invocation 100
▁interrupt 100
▁endObject 100
shift 100
DL 100
extra 100
▁although 100
']; 100
usic 100
8) 100
You 100
▁getSub 100
▁Category 100
▁Tri 100
▁Word 100
▁avg 100
▁Man 100
▁Binary 100
▁ess 100
▁7. 100
▁accessing 100
▁larger 100
po 100
Statistics 100
Launch 100
xs 100
dims 100
bsolutePath 100
▁consume 100
▁Therefore 100
▁nr 100
▁experiment 100
▁3: 100
IOException 100
▁Authentication 100
gan 100
▁eps 100
▁reasons 100
▁Op 100
▁keeps 100
▁cnt 100
Records 100
▁STATE 100
▁3) 100
iration 100
▁developer 100
▁symbols 100
Instances 100
▁getter 100
lared 100
VAL 100
▁0" 100
Scheduler 100
tw 100
▁'. 100
▁2" 100
Break 100
udy 100
▁ports 100
▁sf 100
avadoc 100
▁mapped 100
payload 100
Artifact 100
Qt 100
allery 100
▁Html 100
Cast 100
▁fair 100
Side 100
urable 100
Unique 100
▁pipe 100
▁dead 100
essment 100
▁getY 100
▁codecs 100
▁tmpdir 100
▁ln 100
▁sorting 100
▁Last 100
IFI 100
▁msgs 100
▁Engine 100
atory 100
▁dro 100
▁UTC 100
Err 100
▁*= 100
▁sensor 100
Secret 100
progress 100
anaged 100
USE 100
▁weird 100
▁Av 100
▁setId 100
▁cart 100
▁ie 100
▁frag 100
▁ld 100
mx 100
pages 100
▁OUT 100
▁Oracle 100
Without 100
▁assertQuery 100
SPACE 100
▁cipher 100
▁Flow 100
WR 100
▁installation 100
▁magic 100
ecode 100
▁startObject 100
▁caller 100
havi 100
contrib 100
▁slight 100
DateFormat 100
ensity 100
▁iso 100
▁SI 100
Docs 100
Dev 100
▁talk 100
▁nx 100
pure 100
Foo 100
▁Admin 100
>( 100
▁discuss 100
▁Uri 100
▁Format 100
Threshold 100
▁parents 100
initely 100
SELECT 100
Volume 100
▁He 100
▁29 100
LATE 100
ding 100
▁27 100
arbage 100
▁identify 100
▁testdir 100
loaded 100
▁Fragment 100
PERTY 100
▁drawable 100
▁PK 100
ipart 100
▁products 100
▁hibernate 100
▁isDebugEnabled 100
▁2.7 100
PEN 100
▁freq 100
Basic 100
▁anywhere 100
▁Jquery 100
margin 100
async 100
Tokens 100
arily 100
Predicate 100
REQUEST 100
▁vec 100
plorer 100
acters 100
)" 100
ogs 100
127.0.0.1 100
▁cycle 100
▁navigation 100
▁noticed 100
strings 100
servation 100
▁Follow 100
▁Ide 100
▁Selenium 100
radius 100
▁yy 100
00000 100
▁near 100
▁filled 100
generator 100
disabled 100
answer 100
usters 100
2', 100
avor 100
▁assertAllEqual 100
▁AD 100
▁CLI 100
▁remember 100
Watch 100
aws 100
▁invoked 100
Distance 100
/3. 100
▁Tw 100
▁migration 100
bd 100
inja 100
▁failUnless 100
atype 100
▁searched 100
▁extended 100
stdout 100
▁TEXT 100
▁cleaned 100
▁grab 100
++; 100
▁45 100
▁acl 100
▁recipient 100
iring 100
▁VAR 100
▁sil 100
Family 100
▁newline 100
plugins 100
▁swig 100
▁tok 100
▁doTest 100
filters 100
straint 100
dependencies 100
Sm 100
rozen 100
▁". 100
'+ 100
▁pw 100
sleep 100
allenge 100
▁scop 100
Normal 100
2- 100
▁writeField 100
▁quantity 100
Locator 100
ina 100
▁). 100
▁Series 100
scan 100
▁desktop 100
▁Permission 100
Variables 100
refs 100
Management 100
Span 100
▁getLogger 100
iqu 100
▁writeInt 100
▁recv 100
ech 100
▁Otherwise 100
CONFIG 100
▁Encod 100
▁shutil 100
helper 100
▁PRI 100
▁decom 100
arter 100
Zero 100
functions 100
▁mox 100
▁expecting 100
NAL 100
mediate 100
4_ 100
▁strange 100
▁[]; 100
▁npm 100
Topic 100
▁stand 100
chunk 100
Serialized 100
▁pref 100
▁interested 100
▁specifically 100
▁lost 100
▁getMethod 100
CV 100
ocomplete 100
Upd 100
▁affect 100
▁inventory 100
Declaration 100
Generic 100
▁obviously 100
Username 100
Head 100
VAR 100
▁Symbol 100
▁FOR 100
▁coords 100
Latch 100
▁positions 100
visible 100
▁formatting 100
▁Domain 100
EM 100
plus 100
gpu 100
▁Both 100
Phone 100
should 100
▁DATA 100
illiseconds 100
▁lb 100
erialize 100
▁Box 100
▁minor 100
Enc 100
Alias 100
▁Studio 100
DED 100
▁JPA 100
states 100
Routing 100
ariant 100
▁SIG 100
lower 100
Scal 100
▁opacity 100
▁comparator 100
Indent 100
▁seeing 100
▁fam 100
imize 100
atives 100
ptime 100
▁Given 100
▁getIndex 100
norm 100
ros 100
▁AWS 100
Find 100
-09 100
EW 100
utation 100
iders 100
0.1 100
agg 100
LEMENT 100
Collector 100
▁Handler 100
******** 100
tz 100
Transfer 100
attach 100
tplib 100
▁Preconditions 100
▁developing 100
▁chr 100
switch 100
▁restrict 100
▁getDec 100
▁2016 100
▁stick 100
▁According 100
remote 100
Missing 100
▁itertools 100
▁handled 100
/2 100
▁higher 100
iest 100
▁filepath 100
Inflater 100
Fetch 100
ifies 100
ming 100
verify 100
))) 100
aking 100
Bad 100
something 100
▁memo 100
laim 100
tractor 100
94 100
▁jsp 100
osity 100
depth 100
Ui 100
appe 100
▁getHost 100
las 100
Registration 100
▁Magic 100
▁ba 100
(2 100
Origin 100
Drop 100
zure 100
forms 100
3.1 100
▁assertAllClose 100
otes 100
▁nic 100
developer 100
▁photo 100
summary 100
nan 100
▁CPU 100
▁neg 100
▁collector 100
▁getComponent 100
Features 100
▁getActivity 100
6' 100
▁2015 100
▁getNum 100
Initial 100
mig 100
▁pin 100
sparse 100
▁utc 100
Cur 100
▁perhaps 100
▁mag 100
ellow 100
▁Proxy 100
▁accum 100
family 100
▁unlink 100
▁JSP 100
logs 100
rocessing 100
structure 100
▁8. 100
▁medi 100
▁startTime 100
▁isdir 100
Indices 100
rient 100
:80 100
▁combination 100
-01-01 100
▁Dummy 100
▁simpler 100
▁textbox 100
compute 100
▁predictions 100
▁wb 100
XY 100
middleware 100
▁Consider 100
▁Missing 100
oney 100
▁workflow 100
Changes 100
▁mistake 100
aged 100
cheduled 100
Modal 100
(/ 100
commands 100
Under 100
▁Close 100
▁getvalue 100
▁strftime 100
Question 100
ette 100
▁readline 100
ializers 100
CTYPE 100
▁Creating 100
ializing 100
▁considered 100
▁substit 100
▁primitive 100
▁cmp 100
Seconds 100
Accept 100
▁"+ 100
▁MVC 100
▁epoch 100
indent 100
▁Root 100
▁Comment 100
adoop 100
fp 100
▁merged 100
FileSystem 100
▁multiply 100
modifiable 100
CRE 100
ffff 100
ae 100
days 100
▁opens 100
▁gateway 100
▁Student 100
Put 100
1] 100
atial 100
▁prod 100
(* 100
member 100
▁Options 100
setText 100
▁guide 100
yc 100
Revision 100
ij 100
▁spe 100
▁Co 100
▁pg 100
▁numer 100
history 100
Stub 100
▁preferred 100
NC 100
Credentials 100
▁rotation 100
▁introdu 100
>. 100
▁Cert 100
[2] 100
GR 100
▁Criteria 100
svg 100
▁software 100
isode 100
▁resolution 100
▁Help 100
▁isfile 100
▁Email 100
▁closure 100
▁inserted 100
Rules 100
▁instantiate 100
▁fade 100
300 100
anging 100
upy 100
▁screenshot 100
▁READ 100
LES 100
▁broadcast 100
▁bunch 100
rand 100
Bo 100
nth 100
generate 100
▁Feature 100
▁dn 100
1"> 100
border 100
▁getSu 100
blue 100
▁internet 100
Pixel 100
▁exe 100
▁getTable 100
▁pow 100
▁textarea 100
Sorted 100
compatible 100
▁Statement 100
▁Play 100
▁Language 100
▁setVisible 100
icense 100
▁Assuming 100
}); 100
webkit 100
IZ 100
72 100
Replace 100
▁facing 100
52 100
dc 100
missing 100
▁Types 100
▁mx 100
▁pause 100
▁Getting 100
▁paragraph 100
miss 100
RESS 100
▁Solution 100
▁JDBC 100
currency 100
▁ips 100
prob 100
EE 100
Windows 100
Switch 100
Strings 100
▁findall 100
▁occurred 100
▁pieces 100
aring 100
lies 100
/2.1.1/ 100
▁forEach 100
▁comprehension 100
Started 100
Browser 100
Some 100
FORMAT 100
SCRI 100
Trigger 100
ideos 100
▁notes 100
▁IF 100
▁SWT 100
▁strong 100
▁Render 100
▁Report 100
▁gui 100
▁boxes 100
▁Send 100
Requests 100
iny 100
▁irq 100
▁arraycopy 100
▁CA 100
etter 100
▁produces 100
odb 100
▁business 100
▁cut 100
▁0.9 100
▁workspace 100
alancer 100
3\ 100
chool 100
numpy 100
descriptor 100
▁Zip 100
MESSAGE 100
▁que 100
▁implicit 100
PL 100
▁scipy 100
▁preview 100
▁Inject 100
Activ 100
Completed 100
artment 100
itect 100
▁getVersion 100
▁toLowerCase 100
▁wheel 100
CUR 100
▁wasn 100
=( 100
▁placed 100
Desktop 100
arguments 100
▁Sum 100
▁complicated 100
Metric 100
▁errno 100
▁Rece 100
▁.... 100
GIN 100
eless 100
querySelector 100
▁Geo 100
▁SVG 100
▁Library 100
▁getSize 100
icsearch 100
▁meant 100
Allowed 100
▁subscribe 100
semb 100
▁contentType 100
▁RouteBuilder 100
imp 100
▁PIPE 100
yclerView 100
Loading 100
ITION 100
oves 100
▁hence 100
▁Le 100
inated 100
▁accepted 100
▁getService 100
MAP 100
▁sdk 100
Req 100
▁concurrent 100
ojo 100
▁tomcat 100
▁getView 100
named 100
400 100
Reason 100
▁sends 100
lists 100
Shared 100
Certificate 100
built 100
eeded 100
▁Comparator 100
▁Many 100
nost 100
erse 100
▁SUP 100
▁interpol 100
Filters 100
sert 100
▁NONE 100
▁suppose 100
▁took 100
Pipeline 100
▁abort 100
Texture 100
collect 100
▁Maps 100
▁JLabel 100
symbol 100
ordova 100
private 100
▁research 100
▁rewrite 100
cluster 100
▁operand 100
▁hack 100
▁clar 100
▁Strings 100
1111 100
istr 100
Primary 100
secret 100
ovie 100
▁resolver 100
▁initialization 100
house 100
▁VALUES 100
▁Facebook 100
▁Named 100
▁Vue 100
▁normally 100
▁JAXB 100
▁reflect 100
FromString 100
▁distinct 100
▁widgets 100
▁callbacks 100
ana 100
================ 100
Multiple 100
Standard 100
alone 100
▁generating 100
▁NE 100
▁Two 100
▁neighb 100
apsed 100
protocol 100
▁codec 100
▁intended 100
disk 100
▁lets 100
Aggregation 100
memory 100
▁"\ 100
▁tuples 100
scape 100
▁located 100
▁coord 100
contact 100
▁Extension 100
rpc 100
rompt 100
Example 100
▁nl 100
apps 100
()). 100
▁Real 100
slide 100
Tri 100
▁getMin 100
erscore 100
sol 100
_8 100
iry 100
▁handles 100
▁Timer 100
serialize 100
▁predicate 100
Dispatcher 100
▁%> 100
▁nat 100
Answer 100
Graphics 100
▁Take 100
ocial 100
xf 100
:12 100
parameter 100
▁getSession 100
snapshot 100
resentation 100
▁whitespace 100
▁AngularJS 100
('# 100
bucket 100
▁fullname 100
oreignKey 100
▁Platform 100
▁pb 100
▁Driver 100
▁variant 100
reflect 100
BASE 100
outputs 100
▁getConnection 100
▁START 100
▁SY 100
Effect 100
II 100
NonNull 100
▁incoming 100
▁Suppress 100
▁odd 100
Runnable 100
dataset 100
▁bulk 100
▁knows 100
;"> 100
Hex 100
▁markers 100
Download 100
hat 100
sb 100
enef 100
Bottom 100
▁initializer 100
rier 100
Payload 100
Hint 100
▁TypeId 100
▁respond 100
connected 100
<? 100
student 100
▁jdbc 100
▁migrate 100
Codec 100
▁sections 100
▁Aggreg 100
▁CharSequence 100
▁nextInt 100
HOME 100
3- 100
▁succeed 100
cha 100
NotExist 100
▁generally 100
omb 100
▁advant 100
3.0 100
▁boundary 100
Scheme 100
▁Size 100
▁aliases 100
▁CF 100
▁vertices 100
▁35 100
▁Full 100
big 100
▁“ 100
▁spam 100
▁underlying 100
▁checksum 100
bug 100
Prov 100
partition 100
56789 100
RT 100
6) 100
undefined 100
▁tempfile 100
▁OAuth 100
▁dm 100
▁setColor 100
▁leaf 100
▁streams 100
free 100
▁xs 100
▁FileInputStream 100
▁sqlite 100
▁Messages 100
▁recursion 100
▁foreign 100
subscribe 100
DP 100
▁ce 100
▁nt 100
bool 100
▁Register 100
▁cov 100
07 100
Operations 100
RS 100
Scanner 100
41 100
▁Every 100
Completion 100
country 100
period 100
primary 100
▁bc 100
OD 100
▁TType 100
Processing 100
▁readInt 100
Percent 100
▁pay 100
PY 100
break 100
cli 100
Structure 100
seudo 100
▁recently 100
▁globals 100
▁Ordered 100
▁<% 100
prev 100
stmt 100
32' 100
Public 100
vol 100
▁ranges 100
enable 100
phabet 100
▁peek 100
▁ASC 100
▁flash 100
prevent 100
▁getRequest 100
etty 100
LICATION 100
▁unm 100
Ele 100
basic 100
ising 100
Reply 100
▁mime 100
▁Lists 100
▁"2" 100
ListView 100
▁subset 100
edir 100
▁Case 100
wiki 100
▁procedure 100
Relative 100
tics 100
rypted 100
transaction 100
▁signed 100
▁anybody 100
▁conditional 100
company 100
AndroidRuntime 100
Super 100
▁figured 100
▁filenames 100
efficient 100
▁notebook 100
Merge 100
matches 100
________ 100
▁disconnect 100
▁mb 100
▁TL 100
initial 100
running 100
clusion 100
pad 100
▁assum 100
isation 100
▁Counter 100
▁dialect 100
Chooser 100
▁cwd 100
"}, 100
vey 100
Supported 100
▁Multiple 100
▁stops 100
:8 100
NOWN 100
▁Employee 100
▁Save 100
TRIBUT 100
▁Grad 100
weights 100
gable 100
▁cid 100
▁Password 100
Material 100
▁Setting 100
lices 100
begin 100
enk 100
▁drawing 100
▁adj 100
Slot 100
▁startup 100
▁Customer 100
Branch 100
▁quality 100
▁modul 100
▁submitted 100
GroupName 100
Cookie 100
Enable 100
Loaded 100
rating 100
▁getMock 100
▁setF 100
ersey 100
Drag 100
getString 100
▁executes 100
olicies 100
▁gt 100
eclipse 100
▁0.3 100
▁accepts 100
▁facts 100
▁reuse 100
▁moved 100
NK 100
Refer 100
▁iterating 100
▁arbit 100
TRA 100
vention 100
▁Trying 100
▁dup 100
IAL 100
Threads 100
▁Description 100
tecode 100
bone 100
bus 100
▁sizes 100
ARRAY 100
▁geometry 100
▁Hi 100
▁GE 100
ffic 100
Based 100
Common 100
extend 100
under 100
▁paste 100
outes 100
▁getAbsolutePath 100
Forward 100
FormatException 100
▁ii 100
VO 100
export 100
1.0" 100
404 100
▁ADD 100
usion 100
}" 100
▁generates 100
recation 100
▁pat 100
culate 100
▁101 100
▁getOr 100
Press 100
▁nor 100
NED 100
▁JButton 100
▁gram 100
Retry 100
▁/** 100
lavor 100
Should 100
▁Would 100
▁locally 100
oracle 100
Alloc 100
6_ 100
ele 100
▁Visual 100
release 100
andidates 100
000, 100
▁went 100
▁previously 100
▁quant 100
OFF 100
initializer 100
ORE 100
TING 100
▁QtGui 100
▁hyper 100
FC 100
pkg 100
▁2' 100
▁AST 100
▁setter 100
▁dataType 100
MenuItem 100
Iteration 100
▁Cursor 100
▁DIS 100
▁MB 100
▁opp 100
▁Shared 100
▁encoder 100
▁External 100
▁controls 100
rollers 100
Platform 100
▁MagicMock 100
▁dense 100
annotation 100
bits 100
versions 100
times 100
Connected 100
Old 100
▁smart 100
8" 100
▁getTest 100
▁recommended 100
▁NUM 100
ORS 100
setEqual 100
Finder 100
▁contained 100
zy 100
Dataset 100
Modifier 100
mlink 100
inv 100
concat 100
▁rectangle 100
▁frequency 100
▁addon 100
▁accessible 100
resolve 100
TABLE 100
reparedStatement 100
▁compression 100
▁shadow 100
works 100
▁Region 100
▁la 100
oned 100
DataType 100
Stamp 100
▁getLong 100
▁blocking 100
▁locals 100
Publish 100
Expand 100
▁occurren 100
Fn 100
xxx 100
▁Vert 100
▁prepared 100
rapped 100
▁prior 100
share 100
failure 100
▁spark 100
▁Collect 100
▁stopped 100
▁5.0 100
▁vlan 100
▁movie 100
▁rng 100
▁decre 100
([' 100
▁lp 100
▁scores 100
▁communicate 100
qs 100
=> 100
▁saw 100
LOAD 100
▁months 100
▁pp 100
Mail 100
pecially 100
Members 100
textarea 100
BACK 100
ictionaries 100
Soup 100
SERVER 100
▁getChildren 100
▁hom 100
isk 100
▁stroke 100
▁getDescription 100
program 100
▁ordering 100
ABLED 100
▁expires 100
sy 100
IES 100
Alpha 100
3> 100
--> 100
▁Require 100
▁combined 100
efile 100
▁caused 100
▁InetAddress 100
geom 100
changes 100
▁om 100
xc 100
▁PS 100
facts 100
cfg 100
▁qty 100
tbody 100
▁infinite 100
▁Bootstrap 100
▁'\ 100
repos 100
▁Console 100
▁directories 100
validation 100
dl 100
Direction 100
ivot 100
▁slightly 100
▁XPath 100
▁Rev 100
▁folders 100
▁Sorry 100
Destroy 100
▁'10 100
▁Beautiful 100
▁tid 100
repo 100
*/ 100
▁forum 100
ony 100
0.0 100
ThreadPool 100
▁33 100
▁older 100
▁FLAG 100
padding 100
▁rstrip 100
▁Lock 100
▁scrolling 100
▁lon 100
▁getResult 100
SECONDS 100
▁150 100
▁dag 100
▁getConfig 100
ILED 100
▁anymore 100
▁0: 100
origin 100
Pending 100
▁receiving 100
city 100
▁JAR 100
▁Sequence 100
▁nextToken 100
▁navigate 100
THON 100
▁decoder 100
▁sg 100
▁${ 100
▁37 100
ILLI 100
Annotations 100
processor 100
signature 100
fmt 100
States 100
charts 100
▁Names 100
▁Static 100
▁Regex 100
bm 100
▁"# 100
itories 100
81 100
▁playing 100
RECT 100
00000001 100
▁endsWith 100
▁methodName 100
ifferent 100
▁manual 100
ascii 100
Console 100
uint 100
▁typing 100
▁getBlock 100
▁whose 100
▁locator 100
▁af 100
▁broker 100
gain 100
▁getResources 100
velope 100
▁uploaded 100
Times 100
▁polygon 100
flat 100
▁defining 100
LOSE 100
servers 100
ressions 100
▁fairly 100
▁shuffle 100
Install 100
▁dataSource 100
Preference 100
urer 100
▁forget 100
Router 100
▁Scal 100
Alert 100
▁JavaFX 100
JavaScript 100
▁importing 100
FER 100
▁animate 100
defaults 100
▁clause 100
▁verbosity 100
Tables 100
▁getCount 100
▁serve 100
▁mc 100
▁INTO 100
translate 100
▁aspect 100
added 100
slash 100
▁horizontal 100
▁Tk 100
▁}). 100
▁Good 100
ims 100
▁getLength 100
▁2020 100
▁Uncaught 100
ited 100
aches 100
Subject 100
▁Browser 100
▁implementations 100
▁wsgi 100
swing 100
],[ 100
▁valueObject 100
agram 100
Js 100
xpath 100
stringify 100
getElementsBy 100
POS 100
anode 100
room 100
indexOf 100
anted 100
▁contract 100
▁limited 100
▁easiest 100
etion 100
ERY 100
▁completion 100
▁levels 100
▁fin 100
▁tensorflow 100
▁Role 100
za 100
▁Its 100
Rot 100
namespace 100
encing 100
losing 100
iliar 100
▁Connect 100
▁stores 100
▁mesh 100
▁ImmutableMap 100
dropdown 100
▁lastComparison 100
itecture 100
alformed 100
▁Inv 100
merge 100
ocker 100
Src 100
Added 100
▁getHeader 100
ehicle 100
▁SM 100
Big 100
▁rx 100
▁EOF 100
Hook 100
havior 100
▁sites 100
Machine 100
▁onto 100
▁looping 100
:20 100
▁concatenate 100
▁separated 100
fg 100
mul 100
▁broken 100
focus 100
▁invalidate 100
▁Replace 100
question 100
Setup 100
TreeNode 100
ificant 100
▁Everything 100
Something 100
▁Interface 100
OutOfBounds 100
rollment 100
builder 100
▁AttributeValue 100
▁02 100
▁TE 100
blog 100
▁installing 100
▁tooltip 100
rank 100
Shell 100
▁SyntaxError 100
▁isIn 100
Canvas 100
▁band 100
▁replacing 100
6" 100
git 100
IV 100
egation 100
ni 100
Updated 100
2.168 100
8.0 100
Boot 100
▁Wait 100
Sheet 100
SIBLE 100
▁compatible 100
▁assertIsNone 100
▁activation 100
▁LayoutParams 100
AUTH 100
▁FS 100
64' 100
▁Lookup 100
▁Download 100
▁getTarget 100
▁Firebase 100
▁encrypted 100
▁pe 100
▁hits 100
▁Directory 100
▁subtract 100
▁writeTo 100
cor 100
▁Sl 100
JB 100
encoded 100
ilation 100
▁elapsed 100
ariance 100
REAM 100
▁getPort 100
▁Canvas 100
Cons 100
▁optimize 100
▁PsiClass 100
super 100
edge 100
ifference 100
logging 100
▁Audio 100
+' 100
▁huge 100
KNOWN 100
LET 100
hex 100
/1.1 100
/1 100
▁Alternatively 100
▁TRUE 100
NumberOf 100
[0], 100
ounce 100
%2 100
▁comparing 100
5_ 100
▁salt 100
▁BufferedImage 100
dump 100
otos 100
seg 100
1</ 100
Coordin 100
Permissions 100
▁boto 100
chars 100
▁(1 100
▁SQLite 100
▁worth 100
▁gf 100
▁health 100
▁Most 100
▁tmpl 100
anger 100
▁mim 100
▁inputStream 100
Disk 100
▁Bro 100
cestor 100
ROOT 100
runner 100
▁INSERT 100
Named 100
▁union 100
▁published 100
▁Safari 100
oe 100
▁ratio 100
▁setLayout 100
digest 100
oration 100
Week 100
etailed 100
▁Ca 100
mun 100
▁GC 100
▁fault 100
Creation 100
▁functional 100
Images 100
▁intercept 100
▁urlparse 100
SERVICE 100
▁chosen 100
▁moves 100
▁extras 100
▁mkdir 100
▁fileobj 100
:- 100
▁Implement 100
▁lots 100
Almost 100
Student 100
preventDefault 100
▁etree 100
choice 100
Btn 100
▁trig 100
▁Excel 100
foot 100
ensive 100
▁observer 100
▁JsonProperty 100
/1. 100
00' 100
enkins 100
▁rating 100
delay 100
▁Dynamic 100
▁ModelPackage 100
▁goog 100
++){ 100
▁setMax 100
▁Profile 100
med 100
▁getBoolean 100
arrow 100
Geometry 100
▁Composite 100
qty 100
▁caret 100
▁unlock 100
RM 100
ERS 100
phere 100
OIN 100
Relation 100
DOWN 100
▁logout 100
andbox 100
▁ping 100
spector 100
▁latitude 100
factor 100
▁WARNING 100
▁Aut 100
written 100
▁possibly 100
rise 100
Padding 100
ComboBox 100
▁getAction 100
Choice 100
▁Usage 100
YY 100
▁getSimple 100
▁immutable 100
▁Car 100
▁'# 100
orator 100
▁CLASS 100
_00 100
▁accessed 100
Decode 100
▁getBean 100
▁"^ 100
2", 100
▁throwing 100
▁guys 100
BR 100
▁Split 100
▁Serializable 100
got 100
generated 100
poses 100
upyter 100
▁INTER 100
▁QU 100
Criteria 100
%20 100
▁0.01 100
▁doub 100
yes 100
alls 100
▁Alert 100
▁tzinfo 100
▁SP 100
pip 100
▁di 100
Delta 100
▁iterations 100
▁'2' 100
▁opener 100
▁nodeName 100
odo 100
proc 100
▁Transform 100
▁Issue 100
▁LA 100
GHT 100
▁Popen 100
▁daemon 100
demo 100
▁ticket 100
▁sid 100
1); 100
:15 100
▁longitude 100
units 100
▁concern 100
▁34 100
▁0.4 100
slider 100
▁gave 100
Protos 100
▁scr 100
cm 100
▁segments 100
ackage 100
▁48 100
spark 100
▁Title 100
▁Progress 100
▁120 100
▁compressed 100
▁corre 100
accept 100
URLConnection 100
▁keras 100
▁unchecked 100
71 100
Locale 100
▁parenthes 100
▁DFS 100
blocks 100
selection 100
▁dirty 100
Analyzer 100
▁calculation 100
▁authenticate 100
▁writ 100
▁rollback 100
▁0' 100
▁accounts 100
ulp 100
inel 100
absolute 100
_2_ 100
posal 100
Tools 100
▁Det 100
Views 100
▁getRow 100
Ctx 100
Regex 100
▁garbage 100
cribe 100
▁Pop 100
▁SAX 100
inger 100
shell 100
setting 100
Stroke 100
▁ViewGroup 100
Pressed 100
DC 100
▁smooth 100
addClass 100
mi 100
▁represents 100
(...) 100
Separator 100
▁inheritance 100
:6 100
▁sink 100
TT 100
▁""; 100
steps 100
▁01 100
Unm 100
cached 100
▁2014 100
arently 100
▁Executor 100
▁duplicates 100
erce 100
▁ISO 100
()" 100
omial 100
multiple 100
hosts 100
Verify 100
tokens 100
ActivityThread 100
▁myProject 100
▁feedback 100
team 100
▁HO 100
▁Thus 100
▁'__ 100
▁Length 100
▁improve 100
Tensor 100
▁independ 100
saved 100
▁CONTENT 100
FOR 100
NN 100
▁Sn 100
▁mechanism 100
▁unused 100
▁10.0 100
/# 100
▁spread 100
▁orientation 100
Interceptor 100
▁gtk 100
ying 100
▁bold 100
▁Callable 100
fb 100
Now 100
▁Did 100
▁reversed 100
going 100
ourses 100
PRI 100
▁BorderLayout 100
vec 100
▁tcp 100
Tip 100
Hand 100
▁Card 100
▁iv 100
▁doesnt 100
WA 100
sorted 100
preter 100
▁setInterval 100
▁ByteString 100
▁attempts 100
fl 100
HashSet 100
math 100
▁actionPerformed 100
▁isol 100
82 100
▁tracker 100
upt 100
week 100
▁proceed 100
getName 100
ils 100
Fire 100
▁disappe 100
▁failing 100
▁svn 100
ino 100
▁getMockEndpoint 100
layers 100
▁9. 100
rain 100
ASH 100
Creator 100
▁COLUMN 100
imated 100
▁199 100
-8" 100
▁5000 100
▁repos 100
olver 100
▁secondary 100
createElement 100
LOB 100
records 100
▁Accept 100
until 100
uk 100
warnings 100
▁terminate 100
▁Shard 100
▁cpp 100
▁Batch 100
Dictionary 100
▁KeyEvent 100
▁overlay 100
▁regarding 100
▁setVisibility 100
▁javafx 100
▁Agent 100
Ok 100
Zip 100
▁official 100
vity 100
▁TCP 100
▁benef 100
▁printer 100
publish 100
▁deb 100
▁san 100
egant 100
▁-0. 100
▁cod 100
AlmostEqual 100
bas 100
Ent 100
▁SUB 100
="#"> 100
Versions 100
lopen 100
▁'', 100
▁getDocument 100
1", 100
▁Operator 100
▁bridge 100
▁./ 100
▁BE 100
▁Info 100
▁legend 100
tutorial 100
small 100
▁gyp 100
▁ago 100
unnel 100
rientation 100
aste 100
sync 100
pandas 100
bundle 100
Picker 100
▁lr 100
▁formula 100
Does 100
▁subs 100
ano 100
Matches 100
Ready 100
▁tells 100
▁mo 100
▁integration 100
▁decided 100
▁arbitrary 100
▁dfs 100
uate 100
NA 100
▁prog 100
boss 100
▁Reader 100
sume 100
▁milliseconds 100
catal 100
scripts 100
Indicator 100
▁Although 100
▁getInput 100
members 100
Customer 100
':' 100
Sent 100
expression 100
▁John 100
▁AUTH 100
▁suspect 100
▁Sorted 100
▁splitlines 100
0-9 100
▁basestring 100
▁Scroll 100
Contain 100
Ord 100
▁discard 100
▁groupby 100
REG 100
▁listed 100
▁sounds 100
expand 100
Fixture 100
▁rd 100
▁Serialize 100
▁multiprocessing 100
(0) 100
▁Working 100
▁failures 100
Hub 100
Assignment 100
Infos 100
IE 100
▁shapes 100
(10 100
▁44 100
▁mong 100
Priority 100
▁divide 100
53 100
▁getDisplay 100
FFER 100
▁generation 100
▁Js 100
▁decoded 100
Dimension 100
▁getImage 100
CLI 100
trigger 100
alpha 100
▁88 100
▁drive 100
▁WR 100
sim 100
▁getEntity 100
Cost 100
EGER 100
even 100
8/ 100
Dependency 100
▁FIELD 100
TIMEOUT 100
tabs 100
▁organization 100
ATIC 100
▁star 100
▁tkinter 100
▁filesystem 100
▁ended 100
▁setDefault 100
▁simplify 100
cluding 100
▁nullable 100
/200 100
▁discover 100
▁sigma 100
▁interact 100
deg 100
izable 100
▁creator 100
▁ke 100
▁bindings 100
ota 100
▁ftype 100
ira 100
▁dependent 100
(". 100
REE 100
PM 100
')); 100
'}, 100
pointer 100
▁Ker 100
▁specification 100
▁userName 100
▁jump 100
Light 100
▁checkpoint 100
}}</ 100
ategorical 100
Compiler 100
▁propertyName 100
▁NS 100
itical 100
"], 100
AI 100
▁mContext 100
▁wants 100
embed 100
▁Processor 100
sem 100
CONTENT 100
▁Edge 100
Between 100
▁Keep 100
Mix 100
▁dictionaries 100
▁setTitle 100
▁definitely 100
▁Member 100
▁msv 100
otionEvent 100
Seq 100
fast 100
STATUS 100
une 100
region 100
olid 100
▁brackets 100
▁Contact 100
▁getAddress 100
▁submission 100
▁mapp 100
fixture 100
JNI 100
▁:- 100
▁Cookie 100
duration 100
▁bi 100
Sender 100
modified 100
51 100
▁9, 100
▁hints 100
isted 100
handlers 100
Spring 100
:11 100
▁mixed 100
▁compilation 100
Age 100
uator 100
▁Insert 100
raise 100
▁(1, 100
groupby 100
▁decide 100
▁"10 100
▁entirely 100
▁asc 100
▁breaks 100
distance 100
START 100
andra 100
▁allocation 100
sources 100
TEMP 100
Please 100
▁earlier 100
▁getUrl 100
:14 100
itory 100
Gre 100
strong 100
2"> 100
▁groupId 100
▁writeString 100
ATURE 100
▁passes 100
73 100
▁sty 100
▁httplib 100
▁"); 100
prepare 100
compar 100
Authentic 100
▁newArrayList 100
▁bias 100
▁assigning 100
92 100
▁reserved 100
▁skipped 100
="@+ 100
CD 100
▁setState 100
▁Metadata 100
etc 100
▁toolbar 100
▁Concurrent 100
Imp 100
▁setType 100
same 100
Phase 100
original 100
HttpClient 100
}; 100
▁holds 100
binding 100
▁Patient 100
activate 100
[:, 100
()"> 100
▁inp 100
exceptions 100
▁Intelli 100
▁Factory 100
▁ET 100
Projects 100
ester 100
Transition 100
▁writes 100
▁ll 100
▁getBody 100
listener 100
▁ndim 100
cuit 100
▁jsfiddle 100
▁tarinfo 100
latest 100
▁stay 100
branch 100
Push 100
instances 100
▁unset 100
Invocation 100
▁defer 100
▁fallback 100
▁Stub 100
▁unn 100
SM 100
▁REQUEST 100
▁concrete 100
▁facebook 100
2); 100
▁especially 100
0001 100
istogram 100
entifier 100
("# 100
▁bash 100
▁cy 100
Peer 100
▁nick 100
▁unregister 100
▁HttpRequest 100
▁circ 100
▁surface 100
▁hierarchy 100
clone 100
▁MainActivity 100
▁SHA 100
Partial 100
configure 100
▁essentially 100
signal 100
nl 100
▁assertContains 100
jdk 100
}</ 100
etooth 100
Ratio 100
existing 100
BB 100
▁ordinal 100
unct 100
Repo 100
▁album 100
CPtr 100
amps 100
── 100
5.0 100
Audio 100
compiler 100
ropy 100
▁kwds 100
▁clearly 100
▁STATUS 100
wsgi 100
▁footer 100
▁0.8 100
Blob 100
Car 100
assets 100
We 100
▁blah 100
▁wire 100
TES 100
[2 100
▁accuracy 100
requests 100
Contract 100
▁asarray 100
▁Integ 100
appendChild 100
▁180 100
Assoc 100
▁ded 100
ANGE 100
▁PrintWriter 100
Sibling 100
ATTER 100
andatory 100
Require 100
▁knowledge 100
▁migrations 100
▁swigCPtr 100
ku 100
rolled 100
▁Position 100
▁Will 100
visor 100
sdl 100
Later 100
blank 100
▁gamma 100
DOCTYPE 100
▁setContentView 100
▁webpack 100
ARK 100
▁combo 100
20, 100
assandra 100
▁principal 100
Free 100
IDTH 100
▁orders 100
asper 100
62 100
ERO 100
Regexp 100
Illegal 100
▁getError 100
▁Internet 100
ikip 100
Dim 100
SSWORD 100
▁Authorization 100
ipt 100
Shards 100
ament 100
Arrays 100
/4 100
▁encountered 100
NUMBER 100
ALSE 100
nbsp 100
Optional 100
▁Bl 100
▁raised 100
▁assertNotEqual 100
▁getOutput 100
HEADER 100
▁na 100
▁getPr 100
▁elegant 100
OptionPane 100
▁dry 100
▁Total 100
▁authorization 100
ersistent 100
/1/ 100
▁gather 100
▁Testing 100
HOST 100
Reset 100
▁closest 100
128 100
antic 100
ursive 100
▁70 100
>" 100
▁Got 100
Clear 100
▁deps 100
▁Actually 100
▁encryption 100
Distribution 100
lision 100
marker 100
extensions 100
▁virtualenv 100
Destination 100
▁scalar 100
ActionListener 100
\. 100
▁propag 100
▁transparent 100
▁CR 100
ends 100
Pager 100
▁purposes 100
▁indeed 100
Primitive 100
UpperCase 100
▁Site 100
▁tip 100
▁getResponse 100
▁locate 100
viously 100
Anchor 100
▁editable 100
▁legacy 100
ascade 100
▁'2 100
ieving 100
▁2013 100
▁filePath 100
Go 100
▁Pipeline 100
▁tel 100
Decl 100
▁getEnd 100
avel 100
▁ri 100
Gateway 100
▁OB 100
▁operators 100
▁getSystem 100
▁LEFT 100
▁Based 100
stood 100
▁Following 100
▁enqueue 100
ny 100
arest 100
getText 100
nowledge 100
▁Provider 100
topic 100
▁getSimpleName 100
recision 100
VEL 100
▁Stat 100
▁Spark 100
emonstr 100
▁firefox 100
Ack 100
▁players 100
▁wor 100
▁ClassLoader 100
▁omit 100
▁getClient 100
xe 100
▁curve 100
61 100
▁interesting 100
▁pointed 100
anc 100
2</ 100
utors 100
▁quit 100
vn 100
utron 100
fixed 100
GROUP 100
Tokenizer 100
▁agg 100
▁designed 100
Radius 100
virt 100
▁BeautifulSoup 100
▁fh 100
notes 100
Lite 100
▁pres 100
▁Warning 100
▁ks 100
Satisfied 100
Health 100
aur 100
▁Ubuntu 100
▁Drop 100
7" 100
▁coordinate 100
confirm 100
rb 100
▁life 100
▁3.1 100
ikipedia 100
▁isNull 100
▁SUCCESS 100
Less 100
▁getElements 100
hort 100
▁persistence 100
▁Win 100
Virtual 100
Cleanup 100
▁tester 100
▁identical 100
FilePath 100
SUB 100
Keep 100
projects 100
icip 100
Linear 100
Initializer 100
Angle 100
xsd 100
INDEX 100
lint 100
▁55 100
updated 100
▁nm 100
Qualified 100
▁repl 100
▁JB 100
▁listdir 100
▁arc 100
ERT 100
junit 100
counts 100
▁inflater 100
esome 100
▁firebase 100
▁listOf 100
Img 100
▁graphics 100
TON 100
JO 100
efully 100
▁containers 100
rab 100
Extensions 100
........ 100
tables 100
HttpServlet 100
▁intersection 100
BA 100
ading 100
▁Shape 100
▁HOST 100
di 100
▁Nonnull 100
Buff 100
▁theta 100
▁PUT 100
▁war 100
▁complexity 100
▁AF 100
▁ActionListener 100
Dirs 100
DING 100
▁!== 100
▁namespaces 100
cmp 100
Blank 100
▁nova 100
Sets 100
▁advantage 100
CKET 100
/0 100
specific 100
▁normalized 100
▁SA 100
DEF 100
▁hot 100
▁Timeout 100
▁Fetch 100
▁getLog 100
▁foobar 100
▁fraction 100
xxxx 100
vl 100
▁Elast 100
hostname 100
▁vendor 100
othing 100
▁Dataset 100
Attrs 100
▁Duration 100
▁ROOT 100
ignore 100
estions 100
▁sendBody 100
irt 100
Sources 100
owired 100
SocketAddress 100
beat 100
bg 100
▁nodeId 100
▁JComponent 100
-201 100
fade 100
▁Chart 100
▁composite 100
ria 100
▁grammar 100
Clause 100
Testing 100
▁Manager 100
Occ 100
aily 100
FN 100
suffix 100
▁kv 100
▁JSONArray 100
▁Inf 100
▁preserve 100
runtime 100
▁filtering 100
▁notation 100
AndGet 100
▁runnable 100
>' 100
▁exceed 100
KEN 100
▁Ne 100
▁dol 100
▁proj 100
RuntimeException 100
alloc 100
▁Groovy 100
▁currentThread 100
▁ttl 100
▁Join 100
▁challenge 100
Documents 100
refresh 100
Sink 100
Own 100
▁'./ 100
▁09 100
▁histogram 100
▁DAT 100
▁Matcher 100
▁getTotal 100
▁balance 100
aaaa 100
transition 100
▁GROUP 100
▁classifier 100
eteor 100
▁mismatch 100
Theme 100
▁posting 100
▁atomic 100
Viewer 100
▁copyOf 100
Composite 100
▁fired 100
▁randint 100
uling 100
▁Policy 100
▁middleware 100
▁strugg 100
pus 100
jav 100
▁BO 100
.: 100
▁patient 100
ruit 100
RPC 100
▁thank 100
sites 100
▁iface 100
rack 100
ablish 100
gnoring 100
▁ANY 100
▁findBy 100
Functions 100
▁getLocation 100
cancel 100
▁opcode 100
▁0.6 100
▁confusing 100
▁Fixed 100
1; 100
PTIONS 100
▁Without 100
▁Constant 100
Private 100
)). 100
▁canonical 100
▁Home 100
▁cdata 100
▁Answer 100
▁Refer 100
reverse 100
ebody 100
owner 100
▁annotate 100
Authorization 100
▁getJob 100
power 100
▁spawn 100
▁emptyList 100
▁marked 100
('< 100
ificates 100
ordered 100
▁credit 100
▁redis 100
▁bd 100
▁mongo 100
▁Identity 100
Principal 100
▁assertSame 100
▁QName 100
Safe 100
Hit 100
83 100
▁reflection 100
▁2012 100
▁capital 100
▁Rad 100
FieldName 100
▁floor 100
▁Binding 100
sock 100
)/ 100
Speed 100
ously 100
▁retVal 100
▁Certificate 100
Overflow 100
▁lab 100
▁SERVER 100
Chat 100
▁tol 100
▁Partition 100
pective 100
▁BLOCK 100
Export 100
7.0 100
auss 100
▁buckets 100
-1] 100
▁turns 100
▁colour 100
ctl 100
IndexOf 100
GN 100
▁programs 100
▁startActivity 100
▁CC 100
▁Screen 100
stackoverflow 100
▁Und 100
comments 100
▁getModel 100
ANS 100
▁Direct 100
LEASE 100
Endpoints 100
2; 100
▁GridBag 100
▁WebDriver 100
▁susp 100
sig 100
Beans 100
cost 100
▁promises 100
▁Need 100
/* 100
processed 100
▁separately 100
rink 100
fish 100
▁DATE 100
▁1] 100
Problem 100
▁selecting 100
9) 100
▁"2 100
▁craw 100
Notify 100
▁grade 100
▁mt 100
▁TestCase 100
por 100
▁saf 100
ACTION 100
▁keeping 100
Accessible 100
▁Phone 100
ems 100
axes 100
▁familiar 100
▁applet 100
cwd 100
▁Encoding 100
▁ack 100
prov 100
external 100
▁"- 100
2020 100
scriber 100
CONNE 100
▁interactive 100
▁editing 100
▁books 100
▁jars 100
gradient 100
]* 100
▁Develop 100
▁glyph 100
▁computed 100
references 100
=""> 100
▁Instant 100
METH 100
▁quota 100
▁datastore 100
shared 100
▁Transport 100
uer 100
alchemy 100
▁issub 100
Encoded 100
▁demonstr 100
▁Material 100
▁yout 100
Tog 100
▁scrap 100
udget 100
▁metaData 100
▁Soft 100
CR 100
Include 100
xa 100
jobs 100
CACHE 100
edirs 100
▁setSelected 100
▁getGroup 100
aret 100
▁toByteArray 100
▁cum 100
▁Predicate 100
cart 100
permissions 100
Camera 100
illing 100
suite 100
ighter 100
3333 100
▁PL 100
▁shortcut 100
▁usr 100
▁remain 100
▁limits 100
rated 100
▁ParseException 100
ReadOnly 100
ooper 100
▁RUN 100
▁simplest 100
▁Raw 100
▁defines 100
MAIL 100
▁WebSocket 100
▁checkboxes 100
▁orm 100
▁differences 100
[0]) 100
;" 100
▁Artifact 100
Classifier 100
▁refers 100
{} 100
▁inverse 100
▁preference 100
▁leading 100
▁deleting 100
▁statistics 100
allowed 100
▁si 100
▁fid 100
▁Consumer 100
▁assertNotIn 100
ampling 100
▁dispatcher 100
Queries 100
▁dao 100
ulating 100
▁Generated 100
Blocking 100
▁bigger 100
CTED 100
▁decrypt 100
ampa 100
placeholder 100
green 100
▁beginner 100
PARATOR 100
▁expects 100
IR 100
▁reactor 100
▁modification 100
boolean 100
▁preced 100
▁isEnabled 100
▁JOIN 100
▁PC 100
mq 100
digit 100
▁getColor 100
▁fork 100
▁finds 100
▁sessions 100
etched 100
▁Metric 100
egg 100
▁cle 100
▁uniform 100
▁stubs 100
▁combinations 100
▁Analy 100
▁estimator 100
▁El 100
▁BASE 100
metric 100
croll 100
complex 100
▁preferences 100
nested 100
▁draft 100
▁JOptionPane 100
▁formset 100
▁localStorage 100
Digest 100
▁Cap 100
versal 100
▁weak 100
upd 100
▁Anyone 100
linear 100
▁wizard 100
Cause 100
▁getTask 100
▁descr 100
MX 100
schemas 100
▁PsiMethod 100
xies 100
▁calculated 100
▁sorry 100
▁snap 100
▁addTo 100
▁frozen 100
cv 100
icast 100
▁getTag 100
▁manipulate 100
ORIZ 100
▁edited 100
▁ORDER 100
▁audit 100
▁Append 100
▁nodelist 100
▁600 100
important 100
▁ill 100
ifecycle 100
Archive 100
▁FileNotFound 100
▁fos 100
integer 100
▁decision 100
▁getUn 100
culator 100
▁"12 100
▁sprite 100
2\ 100
▁differently 100
▁vocab 100
▁onchange 100
▁General 100
WORK 100
sep 100
▁finalize 100
Und 100
▁'12 100
91 100
Transformer 100
▁retrieved 100
▁deepcopy 100
2,3, 100
▁chapter 100
▁todo 100
UILD 100
umps 100
Room 100
CB 100
ball 100
▁quickly 100
authentic 100
(\ 100
Att 100
▁accordingly 100
▁META 100
▁tokenizer 100
installed 100
DataSet 100
▁2.1 100
TS 100
▁repaint 100
▁sale 100
▁CODE 100
▁deployed 100
xyz 100
//// 100
Release 100
Ops 100
▁compared 100
UMENT 100
▁happened 100
Vars 100
Orientation 100
erry 100
▁Eval 100
▁song 100
▁benchmark 100
Sim 100
▁indexing 100
Ne 100
patterns 100
63 100
article 100
ivy 100
Wrap 100
▁actor 100
▁playlist 100
erator 100
▁URLs 100
000/ 100
BIN 100
Course 100
LEAN 100
0,0, 100
POINT 100
▁ACT 100
▁rh 100
▁hdfs 100
.< 100
▁ASCII 100
▁replaceAll 100
_7 100
▁discussion 100
UBLE 100
▁deferred 100
OLD 100
▁excluded 100
STAMP 100
▁percentage 100
▁Loop 100
jb 100
riterion 100
operation 100
▁instrument 100
abric 100
▁detected 100
▁priv 100
▁logits 100
alette 100
equ 100
rivileged 100
Words 100
▁Cred 100
▁Power 100
Dependencies 100
▁onChanged 100
▁explained 100
ainder 100
Uid 100
▁defaultdict 100
▁setM 100
▁coverage 100
▁Mutable 100
▁xyz 100
▁Bind 100
ahead 100
TRIBUTE 100
IDs 100
▁Video 100
world 100
ORD 100
Aware 100
▁Style 100
▁reports 100
fff 100
▁SW 100
ENTER 100
ampaign 100
▁SOAP 100
="1.0" 100
▁Pool 100
▁authors 100
agger 100
▁CONFIG 100
FLAGS 100
MASK 100
getter 100
skip 100
▁syn 100
Interrupt 100
▁SIZE 100
audio 100
peated 100
Lex 100
losure 100
execution 100
listen 100
▁aux 100
▁Lat 100
Nested 100
▁infer 100
-1, 100
▁transpose 100
▁ctrl 100
fake 100
bro 100
erializer 100
▁qualified 100
00" 100
▁readonly 100
▁## 100
▁Either 100
▁getCause 100
▁neither 100
Numbers 100
▁reached 100
▁systems 100
elines 100
▁ENT 100
Clicked 100
Elem 100
ressor 100
Recover 100
identifier 100
▁packageName 100
(0); 100
coin 100
▁bund 100
flush 100
▁INDEX 100
argv 100
Disabled 100
filer 100
▁visited 100
▁ring 100
▁rmt 100
inline 100
actoring 100
PH 100
consist 100
___ 100
ENG 100
examples 100
▁observable 100
Surface 100
(... 100
▁RM 100
ua 100
Append 100
▁"", 100
urchase 100
▁00:00:00 100
▁netloc 100
:8080 100
▁utility 100
implement 100
▁tutorials 100
▁Merge 100
▁convertTo 100
▁ci 100
allclose 100
formance 100
Links 100
▁(? 100
PROPERTY 100
_64 100
ergy 100
,' 100
stderr 100
▁purchase 100
(3 100
Camel 100
▁Conf 100
ettle 100
Attachment 100
▁AndReturn 100
constraint 100
▁tl 100
versation 100
▁Subject 100
▁highest 100
▁retain 100
Modules 100
▁DIV 100
TypeName 100
▁aggregation 100
dimension 100
▁Generate 100
iframe 100
future 100
▁intermediate 100
(@ 100
Backend 100
▁architecture 100
▁CS 100
▁setHeader 100
▁news 100
▁getPackage 100
▁Snapshot 100
anonymous 100
angles 100
▁assets 100
▁{1 100
locale 100
▁setData 100
▁modifying 100
closed 100
▁prefs 100
GG 100
▁bank 100
Medi 100
VoCollection 100
Conversion 100
▁readString 100
▁subsequ 100
▁expanded 100
▁Fast 100
12, 100
Exceptions 100
▁getSelection 100
jQuery 100
:100 100
▁serialization 100
▁wa 100
slug 100
Est 100
resize 100
.*; 100
▁De 100
NULL 100
Manifest 100
black 100
ATED 100
▁px 100
▁attack 100
▁getToken 100
eph 100
▁reporter 100
-15 100
▁getBase 100
arehouse 100
OBJECT 100
▁story 100
▁mutable 100
timer 100
tl 100
▁reprodu 100
live 100
▁ActionEvent 100
Dynamic 100
▁Mode 100
Middleware 100
▁somebody 100
bars 100
------------ 100
▁GMT 100
▁tbl 100
met 100
channels 100
▁dw 100
hot 100
ills 100
lst 100
Pages 100
▁struggling 100
Soft 100
subject 100
BT 100
▁PORT 100
▁ImmutableSet 100
Locations 100
▁0.25 100
▁ATTR 100
▁physical 100
Replic 100
andling 100
▁welcome 100
Scene 100
lapsed 100
▁ListView 100
<>(); 100
TOKEN 100
MessageCount 100
DownLatch 100
▁fatal 100
="#" 100
intent 100
Stmt 100
>", 100
▁thumb 100
Ac 100
▁removeAll 100
▁idle 100
secure 100
▁splitext 100
override 100
Mappings 100
tc 100
▁proposed 100
▁getJ 100
ye 100
xception 100
:7 100
Receive 100
▁Interval 100
.5 100
▁injection 100
▁leak 100
ails 100
▁oct 100
Mutable 100
resp 100
Using 100
▁embedding 100
8_ 100
▁fm 100
▁Registry 100
Diag 100
argest 100
▁appending 100
▁fis 100
about 100
▁Clean 100
may 100
>{{ 100
▁caching 100
▁definitions 100
▁sentinel 100
▁cards 100
▁TEMP 100
NTH 100
▁twitter 100
licable 100
▁Perhaps 100
▁Framework 100
▁Wrong 100
▁PsiType 100
▁youtube 100
kb 100
Fault 100
▁picking 100
▁Br 100
▁curs 100
1\ 100
PK 100
onic 100
▁FORM 100
3', 100
▁Endpoint 100
SPON 100
▁restriction 100
▁requireNonNull 100
▁SubElement 100
▁Parameters 100
RF 100
ARCH 100
▁initially 100
▁1); 100
seed 100
hcp 100
;} 100
▁ImageView 100
Asset 100
▁MotionEvent 100
drag 100
▁getLine 100
itation 100
itelist 100
specs 100
▁Starting 100
▁inher 100
▁evaluated 100
poly 100
▁Amazon 100
ParseException 100
▁indexed 100
▁CL 100
▁ByteBuf 100
parseInt 100
FFFF 100
▁dem 100
Unmarshaller 100
▁[1 100
▁locked 100
▁significant 100
environ 100
▁human 100
[0-9 100
▁mass 100
percent 100
▁CUR 100
Alignment 100
special 100
devices 100
registry 100
artbeat 100
Codes 100
▁Move 100
▁Icon 100
▁Ant 100
NEL 100
speed 100
▁APIs 100
▁simplified 100
▁readLine 100
▁nc 100
Confirm 100
▁xxx 100
STEM 100
▁Measure 100
Embed 100
setitem 100
statement 100
▁latch 100
▁xm 100
▁grouping 100
▁triggers 100
▁webapp 100
▁persistent 100
FR 100
▁projection 100
▁bp 100
▁Resources 100
▁wildcard 100
▁guessing 100
▁coef 100
Generated 100
Translation 100
▁corner 100
▁") 100
▁slash 100
▁250 100
pairs 100
▁Easy 100
▁meth 100
▁blocked 100
since 100
▁Fiddle 100
Pres 100
▁Bucket 100
oles 100
▁spider 100
MAN 100
▁"$ 100
▁ann 100
▁MODE 100
▁curl 100
Until 100
white 100
Binder 100
lik 100
▁impossible 100
▁possibility 100
▁Best 100
▁ioe 100
▁Extract 100
▁unsigned 100
▁masked 100
ety 100
orrent 100
▁resultSet 100
▁Adapter 100
▁dealing 100
failed 100
\/ 100
CheckBox 100
SN 100
Parts 100
tras 100
Multimap 100
▁Success 100
Slice 100
▁TODO 100
usp 100
MARY 100
▁atol 100
▁hooks 100
▁underscore 100
▁MESSAGE 100
▁MyClass 100
DAT 100
▁lexer 100
Resolve 100
▁MILLI 100
▁isNot 100
:16 100
▁2.5 100
ocused 100
Flush 100
ARGET 100
▁tgt 100
4.1 100
=1) 100
getattr 100
trim 100
rgb 100
Power 100
while 100
▁ix 100
gorith 100
aggreg 100
▁grouped 100
▁Plan 100
launch 100
RST 100
▁dashboard 100
ResultSet 100
Heap 100
Cor 100
>"; 100
separ 100
▁mach 100
race 100
▁Mapping 100
▁annotated 100
persistence 100
Clock 100
▁gzip 100
▁populated 100
▁0.7 100
TableName 100
Comments 100
Lists 100
Alive 100
▁cmds 100
▁getPosition 100
93 100
▁communication 100
▁Comparable 100
INDO 100
▁2011 100
previous 100
▁setString 100
opping 100
Removed 100
▁INPUT 100
.2 100
formats 100
▁videos 100
▁FF 100
Fore 100
▁flip 100
▁resume 100
finished 100
XXXX 100
▁Selection 100
lename 100
▁networks 100
PLA 100
4.0 100
▁capabilities 100
}/ 100
▁--- 100
▁aClass 100
azel 100
▁Jar 100
ONT 100
VIEW 100
ih 100
▁08 100
▁minimal 100
▁columnIndex 100
▁treat 100
ICAL 100
substring 100
issues 100
▁FIL 100
▁'3' 100
Encode 100
▁unmodifiable 100
▁getEvent 100
▁XMLHttpRequest 100
Asc 100
SU 100
▁gone 100
▁Logging 100
numbers 100
=\" 100
▁Kettle 100
▁pain 100
▁wiki 100
chat 100
SHA 100
-2. 100
circle 100
plier 100
▁ONE 100
▁CP 100
puter 100
▁streaming 100
▁Notice 100
▁degree 100
stable 100
problem 100
▁EVENT 100
▁performed 100
ercise 100
(! 100
sr 100
htable 100
▁Nested 100
Called 100
▁mine 100
freq 100
▁cube 100
▁getID 100
pag 100
void 100
▁alarm 100
outube 100
▁declaring 100
▁RGB 100
rity 100
▁IDs 100
Highlight 100
($_ 100
▁reli 100
▁copying 100
choices 100
rx 100
▁grant 100
▁Clear 100
▁autocomplete 100
gorithms 100
usted 100
erspective 100
ilon 100
ToMany 100
AppData 100
▁randomly 100
▁staff 100
▁pointing 100
▁METHO 100
aren 100
▁OnClickListener 100
facebook 100
calendar 100
sa 100
Promise 100
▁ti 100
definition 100
DAY 100
UTO 100
▁grow 100
▁gray 100
worker 100
Counts 100
▁collected 100
[0]; 100
Leg 100
Resume 100
popup 100
6.0 100
▁getSec 100
arge 100
▁tokenQueue 100
▁conda 100
customer 100
IA 100
▁suitable 100
Modification 100
▁decl 100
EAR 100
▁OrderedDict 100
▁modifier 100
▁Enable 100
relative 100
Sys 100
staff 100
▁pane 100
Reser 100
▁Hive 100
'" 100
▁hy 100
forge 100
▁builtin 100
▁license 100
NaN 100
onal 100
4: 100
hint 100
▁alphabet 100
▁DT 100
▁Incorrect 100
oday 100
▁JSFiddle 100
follow 100
▁Same 100
▁(0, 100
▁{}; 100
Sdk 100
▁Failure 100
rm 100
epoch 100
▁XX 100
rac 100
CF 100
▁emails 100
QUI 100
▁Url 100
templates 100
Pred 100
predict 100
ATTERN 100
gradle 100
ullet 100
ismatch 100
writing 100
estore 100
▁ASP 100
▁oracle 100
▁setMessage 100
▁rmtree 100
Increment 100
▁providers 100
▁robot 100
Assignable 100
Cached 100
odies 100
Google 100
9' 100
▁undo 100
enance 100
▁ease 100
Cloud 100
inalg 100
Suffix 100
▁setStatus 100
▁DataSource 100
ife 100
▁Rob 100
Colors 100
▁pseudo 100
▁MSG 100
imizer 100
fore 100
erated 100
ganization 100
Implementation 100
Toggle 100
initialize 100
▁derived 100
▁assertIsNot 100
▁PYTHON 100
ActionEvent 100
targets 100
▁UNKNOWN 100
7' 100
Exact 100
vue 100
▁ing 100
▁Microsoft 100
issue 100
▁plug 100
▁Gson 100
DULE 100
avorite 100
▁Kind 100
▁overhead 100
▁providing 100
Days 100
192.168 100
▁detection 100
▁offsets 100
▁INVALID 100
▁effective 100
▁setBackground 100
▁chrom 100
▁worry 100
dic 100
products 100
kind 100
▁COMP 100
pipe 100
▁weather 100
=[' 100
▁LENG 100
▁endpoints 100
2( 100
References 100
▁fort 100
.</ 100
▁City 100
▁JUnit 100
Lng 100
▁Charset 100
pan 100
▁truncate 100
4] 100
▁LENGTH 100
Operand 100
handled 100
▁Sparse 100
▁ball 100
▁vers 100
Sensor 100
charset 100
▁pen 100
▁approx 100
Tester 100
▁outcome 100
▁Som 100
mozilla 100
UPDATE 100
▁gradle 100
▁highly 100
▁fld 100
uptools 100
▁foreach 100
▁'1. 100
▁articles 100
▁getCan 100
Existing 100
▁workers 100
▁Tkinter 100
ravity 100
regular 100
editable 100
tm 100
▁serv 100
="0" 100
Persistence 100
manifest 100
delta 100
▁bbox 100
anaconda 100
Construct 100
▁asyncio 100
Cipher 100
ior 100
▁oid 100
How 100
beta 100
▁wont 100
▁Jan 100
▁volumes 100
▁StringUtil 100
▁Place 100
▁MM 100
CENT 100
▁temperature 100
▁getProperties 100
Terms 100
▁Emb 100
▁'- 100
encv 100
queryset 100
quared 100
▁Values 100
SHORT 100
stone 100
▁stride 100
▁56 100
▁aria 100
Seg 100
001 100
environment 100
COLOR 100
Tile 100
▁optimizer 100
▁zk 100
▁getActive 100
conv 100
Allocation 100
igration 100
▁topology 100
ordion 100
▁rf 100
▁websocket 100
▁Normal 100
▁firstName 100
Win 100
SPONSE 100
▁removes 100
▁firewall 100
▁mav 100
▁whereas 100
▁isSelected 100
▁connecting 100
:59 100
▁JRE 100
▁objs 100
IsSet 100
ABEL 100
Inventory 100
▁scheduled 100
▁IPv 100
ountries 100
▁naming 100
▁everyone 100
Shift 100
▁conven 100
dynamic 100
▁mr 100
▁addCallback 100
▁BUT 100
MY 100
Launcher 100
truct 100
enus 100
▁alg 100
Sn 100
ratio 100
▁appended 100
▁viol 100
▁vpc 100
▁solver 100
▁quiet 100
Previous 100
▁BIG 100
▁opin 100
▁Azure 100
Subscription 100
%3 100
▁integrate 100
Kit 100
tol 100
▁isDirectory 100
Radio 100
▁regions 100
▁injected 100
▁specifying 100
[^ 100
("< 100
sizes 100
▁FALSE 100
▁LINE 100
ITS 100
▁selects 100
cles 100
▁ABC 100
▁StopIteration 100
iph 100
▁Ignore 100
▁Inside 100
TestUtils 100
:25 100
fname 100
▁regardless 100
▁escaped 100
▁getServer 100
▁ItemStack 100
▁AM 100
▁Suppose 100
▁libs 100
▁understood 100
▁air 100
oda 100
Capt 100
emy 100
Mgr 100
▁cleaner 100
UserId 100
▁tokenTypes 100
endpoint 100
▁domains 100
Coord 100
comb 100
onload 100
CEPTION 100
esture 100
}] 100
ENCE 100
▁standalone 100
▁iteritems 100
Utf 100
▁METHOD 100
▁getQuery 100
▁eventually 100
WEB 100
▁har 100
▁ability 100
Make 100
▁Further 100
_5 100
RESULT 100
vanced 100
threads 100
Force 100
▁mill 100
▁lc 100
EVENT 100
Insn 100
▁transformation 100
ini 100
▁srid 100
▁CountDownLatch 100
▁Looking 100
▁extracted 100
integ 100
▁remains 100
▁regexp 100
Ep 100
▁slower 100
Shadow 100
▁returncode 100
▁lookups 100
▁retries 100
UCT 100
gate 100
REEN 100
▁Volume 100
Linked 100
UBLIC 100
prise 100
▁hoping 100
▁Axis 100
▁Twitter 100
=1, 100
▁PER 100
▁interpret 100
SD 100
▁Super 100
ictions 100
▁topics 100
LOAT 100
1000 100
▁sequences 100
▁indicate 100
olut 100
▁disc 100
▁getRem 100
▁wallet 100
▁modifiers 100
Like 100
elery 100
partial 100
rele 100
City 100
lg 100
▁Scope 100
▁PKG 100
▁NOTE 100
AMETER 100
▁Processing 100
▁msvs 100
▁ldap 100
MAND 100
▁[2, 100
sdk 100
iator 100
ositive 100
aph 100
▁packed 100
▁advanced 100
bu 100
▁Loading 100
ARG 100
▁0); 100
-7 100
▁jpg 100
="${ 100
▁rend 100
Round 100
▁DOMAIN 100
selenium 100
▁boost 100
colors 100
▁till 100
UTE 100
▁Handle 100
:17 100
▁buffered 100
▁Jackson 100
▁USE 100
upper 100
Self 100
edis 100
▁traverse 100
▁multipart 100
standing 100
▁splits 100
ONException 100
▁refs 100
yr 100
RGB 100
Ca 100
▁obs 100
animate 100
▁notifications 100
▁Say 100
▁FAIL 100
▁Activ 100
▁100, 100
NSION 100
isc 100
orch 100
(5 100
sha 100
Your 100
NodeId 100
rivilege 100
fragment 100
▁SERVICE 100
▁rtol 100
▁setSource 100
lim 100
reat 100
▁Dependency 100
="1" 100
▁databases 100
▁Layer 100
hd 100
([[ 100
removeClass 100
▁birth 100
▁frequ 100
Getter 100
▁BT 100
iset 100
▁rp 100
rq 100
▁MongoDB 100
repository 100
scene 100
▁Calling 100
assoc 100
▁ug 100
▁NonNull 100
▁errorMessage 100
fol 100
▁getW 100
▁exam 100
Serial 100
oj 100
▁bookmark 100
▁analyzer 100
▁Signature 100
▁AnsibleModule 100
:50 100
▁Dict 100
▁issubclass 100
=$ 100
▁setInt 100
▁potential 100
▁\" 100
getValue 100
inue 100
▁Off 100
datas 100
▁ClassNotFound 100
▁PM 100
▁inserting 100
:</ 100
\": 100
▁scopes 100
tensorflow 100
mk 100
▁setCurrent 100
war 100
▁Db 100
▁ending 100
COMP 100
▁mi 100
ley 100
▁Section 100
Rpc 100
▁checkArgument 100
▁scen 100
valueOf 100
▁Chat 100
pla 100
▁Validate 100
windows 100
▁Bound 100
▁makedirs 100
ecessarily 100
exports 100
▁hasMore 100
periment 100
▁addChild 100
▁evaluation 100
▁totally 100
▁junit 100
Deleted 100
▁inflate 100
▁portion 100
stock 100
oubles 100
archive 100
▁LIST 100
▁Keyboard 100
LIMIT 100
ithmetic 100
▁LOCAL 100
▁discovery 100
setAttribute 100
Preview 100
ROW 100
▁ftp 100
▁applies 100
}> 100
▁caught 100
▁checkout 100
▁spy 100
▁Embed 100
▁Switch 100
ads 100
=0, 100
)\ 100
Matching 100
▁gz 100
▁detailed 100
-20 100
▁dash 100
▁Writer 100
Maps 100
▁trailing 100
ndi 100
▁extrem 100
▁currentToken 100
▁mappings 100
▁MD 100
▁fileno 100
▁tracking 100
▁Attempt 100
Employee 100
▁getDate 100
Configs 100
▁GetTypeId 100
Fs 100
▁́ 100
ITLE 100
Invo 100
Supplier 100
bidden 100
notify 100
preview 100
▁newer 100
▁missed 100
Realm 100
▁Widget 100
▁INIT 100
Dom 100
:\\ 100
▁amazon 100
▁ndarray 100
expect 100
▁candidates 100
▁bytecode 100
commons 100
ORDER 100
ManagerFactory 100
▁establish 100
IALI 100
Country 100
▁sendMessage 100
Skip 100
Schedule 100
▁funct 100
BLOCK 100
Checksum 100
filtered 100
AAAA 100
▁Cancel 100
▁[], 100
UNCTION 100
▁artist 100
FD 100
▁'4 100
100, 100
▁scratch 100
▁spot 100
▁absolut 100
Facade 100
▁exponent 100
Team 100
▁mostly 100
Workspace 100
▁Segment 100
azelcast 100
▁gap 100
IX 100
▁DA 100
▁transactions 100
▁LocalDate 100
▁English 100
▁viewport 100
▁hr 100
Greater 100
kernel 100
OUTPUT 100
▁convertView 100
▁getTitle 100
-30 100
▁amp 100
outh 100
▁ForeignKey 100
som 100
▁allowing 100
Conflict 100
:18 100
lsx 100
Finish 100
Am 100
▁getCache 100
▁jdk 100
igure 100
Reduce 100
loyees 100
▁appendChild 100
Mat 100
processing 100
▁students 100
referred 100
Payment 100
AccessorImpl 100
▁ft 100
▁extent 100
▁ta 100
Zoom 100
▁caption 100
▁indicator 100
TOCOL 100
▁finder 100
▁receives 100
/" 100
ATIVE 100
>'; 100
Pause 100
Ap 100
▁overriding 100
icket 100
isions 100
▁2010 100
Photo 100
numeric 100
rength 100
▁QtCore 100
▁Commit 100
▁iOS 100
destroy 100
rices 100
footer 100
▁INTEGER 100
▁remainder 100
▁slave 100
JSONObject 100
▁100.0 100
▁analyze 100
▁answered 100
▁pn 100
ada 100
▁dmp 100
Compare 100
▁latter 100
▁wraps 100
▁dto 100
lator 100
▁SECONDS 100
▁continuous 100
pub 100
WebView 100
ORTED 100
▁crashes 100
InstanceId 100
elect 100
ViewHolder 100
▁signals 100
ipv 100
▁mocked 100
00000002 100
3.6/ 100
Logging 100
prite 100
But 100
▁Duplicate 100
exact 100
▁GB 100
▁CharField 100
▁Yarn 100
▁pathname 100
retty 100
WIDTH 100
Roles 100
dst 100
▁getList 100
OnClickListener 100
▁fieldId 100
Into 100
poll 100
▁onError 100
land 100
▁helped 100
▁approaches 100
▁commented 100
▁natural 100
▁expl 100
Cnt 100
compat 100
urtle 100
HR 100
estig 100
▁cool 100
ORMAL 100
▁unnecessary 100
logic 100
Procedure 100
Numeric 100
ships 100
mobile 100
▁Feed 100
▁CHAR 100
INSTANCE 100
Needed 100
ucene 100
ognition 100
▁Invocation 100
TYPES 100
▁five 100
▁512 100
▁RESULT 100
Aggregator 100
▁BU 100
Que 100
Jobs 100
▁childNodes 100
▁uninstall 100
▁keyspace 100
255 100
bing 100
(2, 100
▁Serial 100
▁copies 100
▁getPart 100
ubble 100
recationWarning 100
Low 100
estamps 100
identity 100
Mixin 100
▁strides 100
▁fetching 100
▁convention 100
▁20, 100
▁"_ 100
▁ml 100
threshold 100
▁imagine 100
Drawer 100
▁newly 100
Configured 100
OW 100
▁webdriver 100
▁MenuItem 100
star 100
Plot 100
subnet 100
-16 100
▁stated 100
deleted 100
▁bob 100
atile 100
stdin 100
▁Support 100
▁inherited 100
▁cron 100
▁TRA 100
▁leaves 100
▁respective 100
▁Free 100
Behavior 100
▁macro 100
▁developers 100
▁velocity 100
:19 100
▁configs 100
ags 100
▁lastName 100
Detector 100
▁Expect 100
concurrent 100
▁gender 100
▁Dest 100
clause 100
shadow 100
▁Constructor 100
abling 100
▁39 100
▁LD 100
▁TestSuite 100
▁Track 100
▁Apple 100
▁Paint 100
Complex 100
▁controllers 100
▁somewhat 100
Streams 100
▁simulate 100
▁recognize 100
RequestBuilder 100
Buttons 100
ea 100
AttemptId 100
proj 100
ABASE 100
▁expiration 100
▁NU 100
▁Gtk 100
▁isInitialized 100
Margin 100
▁wrapping 100
WITH 100
▁JMS 100
▁Ruby 100
▁Vertex 100
▁episode 100
▁ServiceResponse 100
cross 100
▁pointers 100
▁bytearray 100
▁independent 100
▁│ 100
▁1.2 100
▁posix 100
/3 100
pending 100
Expect 100
aque 100
charm 100
▁interest 100
Compound 100
fun 100
▁setD 100
▁Listener 100
>) 100
▁unfortunately 100
amage 100
Fill 100
▁Der 100
eers 100
▁study 100
▁fre 100
ora 100
obox 100
bles 100
▁gs 100
Mount 100
800 100
▁invert 100
Psi 100
▁PyQt 100
▁slides 100
())); 100
▁alignment 100
cookies 100
▁isAssignable 100
▁IntelliJ 100
▁shardId 100
AF 100
yaml 100
AccessException 100
▁Required 100
($( 100
▁MouseEvent 100
Characters 100
icks 100
▁pivot 100
▁configurations 100
nextInt 100
▁Arch 100
▁season 100
'): 100
need 100
▁addTest 100
nos 100
▁elast 100
▁chance 100
sembly 100
▁/= 100
Else 100
literal 100
dll 100
▁Side 100
▁icons 100
▁stackoverflow 100
phan 100
▁infos 100
▁zz 100
rum 100
▁Caused 100
▁actionGet 100
notated 100
▁awt 100
▁ParseError 100
▁instring 100
▁templ 100
oval 100
▁75 100
▁Reading 100
▁calculations 100
▁Codec 100
▁urlopen 100
Horizontal 100
▁skbaddr 100
ris 100
:9 100
▁frameworks 100
AE 100
cond 100
iversal 100
▁FAILED 100
Handlers 100
direction 100
▁consistent 100
DR 100
BUFFER 100
▁setSize 100
nostic 100
▁MULT 100
▁Literal 100
▁nonce 100
▁lastIndexOf 100
▁doubleValue 100
ponds 100
▁EditText 100
▁"3" 100
▁WEB 100
▁MAP 100
getInstance 100
thead 100
▁'$ 100
orient 100
▁Kafka 100
square 100
Correct 100
acl 100
CharField 100
▁applying 100
GC 100
▁downloading 100
diag 100
▁getLabel 100
▁Attributes 100
orders 100
Nav 100
▁Zero 100
Commands 100
Containing 100
▁getElementsBy 100
Calc 100
▁Docker 100
▁javadoc 100
.0.1 100
Board 100
▁Clone 100
▁subsequent 100
▁nam 100
▁.5 100
▁Blob 100
comparison 100
findViewById 100
▁ints 100
▁– 100
Addresses 100
because 100
▁getCode 100
bat 100
Bridge 100
▁4) 100
▁COUNT 100
▁OFF 100
dense 100
HashCode 100
LOGGER 100
9" 100
orem 100
▁OPEN 100
selves 100
▁claim 100
▁swing 100
ONLY 100
▁intervals 100
Capture 100
▁Specific 100
mn 100
ung 100
▁Var 100
▁chdir 100
▁dll 100
timeit 100
ampler 100
▁verified 100
▁REG 100
etes 100
iq 100
oted 100
▁thous 100
64_ 100
▁qualifier 100
▁heav 100
▁0-9 100
▁Connector 100
▁replication 100
▁transformer 100
asm 100
nock 100
Backup 100
▁Deserialize 100
ponses 100
▁opinion 100
(() 100
▁onload 100
ico 100
URN 100
berry 100
▁MediaType 100
letter 100
Ev 100
▁RET 100
▁rgba 100
UserName 100
▁svc 100
▁DataType 100
▁ten 100
▁Period 100
Animator 100
▁allocated 100
▁Similar 100
▁notNullValue 100
gettext 100
1- 100
▁fk 100
BM 100
▁Sol 100
LONG 100
▁pwd 100
Autowired 100
uting 100
▁Describe 100
[@ 100
CLU 100
▁among 100
monitor 100
▁Hence 100
▁12, 100
floor 100
ardown 100
▁Country 100
▁uom 100
▁EJB 100
Bin 100
ici 100
Ranges 100
Units 100
▁localName 100
/5 100
▁viewer 100
mbolic 100
▁ai 100
▁HH 100
######## 100
▁Diff 100
Sy 100
FieldType 100
="{{ 100
▁talking 100
▁unsupported 100
▁OUTPUT 100
▁released 100
▁publisher 100
▁jobId 100
categories 100
CLOSE 100
Sem 100
▁Anyway 100
▁readlines 100
▁ObjectMapper 100
▁constructors 100
(2) 100
▁mkdirs 100
▁captured 100
▁getDescriptor 100
antom 100
▁triv 100
den 100
▁iris 100
▁Plot 100
define 100
▁normpath 100
▁lack 100
▁happy 100
▁hardware 100
▁absolutely 100
▁gd 100
Defaults 100
ooled 100
▁throwable 100
strategy 100
▁pagination 100
Produ 100
▁mergeFrom 100
SPE 100
hour 100
▁Updated 100
▁roots 100
▁Export 100
entities 100
distribution 100
Descriptors 100
oll 100
({' 100
Deployment 100
Original 100
Broadcast 100
▁datatype 100
▁operating 100
▁fb 100
▁Fr 100
▁dog 100
▁Dynam 100
▁Gradle 100
coords 100
STREAM 100
▁specs 100
▁fx 100
vation 100
▁superclass 100
▁Descriptor 100
Share 100
▁Complex 100
▁Mar 100
setState 100
▁addListener 100
▁VARCHAR 100
)( 100
▁Explorer 100
eroku 100
("\ 100
▁modern 100
▁Addition 100
▁getAttributes 100
▁replica 100
▁Parcel 100
▁upgrad 100
javase 100
▁nest 100
credentials 100
oauth 100
▁fieldType 100
▁NotFound 100
▁DIR 100
▁compatibility 100
▁indicates 100
SESSION 100
DIRECT 100
▁BytesIO 100
Connections 100
leaf 100
RESH 100
CHEMA 100
▁EXTRA 100
ROP 100
▁listing 100
Cr 100
▁HEAD 100
.000 100
▁Prob 100
Quote 100
▁represented 100
▁soap 100
▁datasets 100
▁403 100
WRITE 100
ifying 100
FILES 100
▁manner 100
Alt 100
▁putAll 100
deps 100
▁intersect 100
▁Three 100
constant 100
Idle 100
Widgets 100
▁subtype 100
▁longValue 100
▁Skip 100
Channels 100
inject 100
▁featureID 100
icates 100
Vol 100
▁basis 100
▁performing 100
▁rsp 100
mtime 100
▁"4 100
▁fq 100
▁MA 100
▁addAttribute 100
▁backslash 100
▁FIN 100
▁65 100
strict 100
outine 100
RELEASE 100
XContent 100
METHOD 100
arios 100
▁Backbone 100
ippets 100
▁forName 100
ires 100
CREATE 100
includes 100
▁Users 100
standard 100
▁Having 100
GUI 100
▁coeff 100
isset 100
mo 100
▁csrf 100
PR 100
tb 100
▁_. 100
what 100
▁pod 100
/2/ 100
▁0., 100
Extractor 100
▁JNI 100
▁ko 100
▁CENTER 100
tax 100
three 100
Frames 100
▁[... 100
▁getPage 100
Align 100
▁Errors 100
▁exports 100
REC 100
▁3.5 100
▁Upload 100
▁mimetype 100
eve 100
▁'</ 100
FACT 100
▁fetched 100
▁Structure 100
▁'200 100
▁assertion 100
Iterable 100
▁Body 100
decoder 100
ura 100
:# 100
▁MY 100
▁relatively 100
photo 100
▁AA 100
Overlay 100
▁gdb 100
▁supplied 100
▁argparse 100
▁STATIC 100
cpp 100
Freq 100
Consum 100
▁getInputStream 100
▁nargs 100
oped 100
▁rounding 100
-3. 100
REF 100
andles 100
Cycle 100
---+ 100
▁internally 100
▁rr 100
▁partitions 100
TESTS 100
stub 100
▁fw 100
guid 100
Hidden 100
!"); 100
Nullable 100
▁getNew 100
▁moveTo 100
▁mg 100
▁availability 100
▁automatic 100
▁Bus 100
▁JTable 100
▁marks 100
Cols 100
▁setImage 100
lighter 100
▁spinner 100
Validate 100
titles 100
▁Fields 100
Inline 100
VS 100
oting 100
quis 100
Defined 100
▁taskId 100
▁Typed 100
utive 100
Restr 100
▁turned 100
▁3000 100
parsed 100
Steps 100
UD 100
▁sales 100
Navigation 100
negative 100
TextArea 100
isible 100
▁07 100
Nan 100
▁Expr 100
Publisher 100
except 100
▁04 100
VED 100
▁usual 100
▁59 100
▁mgr 100
▁lstrip 100
els 100
▁Stage 100
dirname 100
▁avatar 100
▁GWT 100
▁49 100
▁achieved 100
▁rely 100
▁profiles 100
proper 100
▁breakpoint 100
Equ 100
▁compose 100
▁POS 100
encoder 100
▁Enc 100
▁typically 100
inx 100
ighbors 100
▁SSH 100
▁outline 100
Signal 100
▁crypto 100
▁para 100
▁ActiveMQ 100
▁6.0 100
▁Div 100
▁subclasses 100
Std 100
Hits 100
▁THE 100
▁neutron 100
elet 100
▁postgres 100
▁mob 100
▁fg 100
aken 100
jspx 100
▁invoking 100
▁Dr 100
GRA 100
▁rebuild 100
▁delivery 100
▁Lambda 100
COND 100
RICK 100
▁nums 100
▁DOUBLE 100
ToOne 100
usable 100
▁TESTFN 100
▁fires 100
▁oo 100
▁doct 100
▁Func 100
Buffered 100
▁school 100
=2 100
itize 100
▁assertIsNotNone 100
Cat 100
▁crc 100
Generate 100
▁gold 100
▁REMO 100
▁"3 100
▁innerHTML 100
}. 100
▁Tools 100
▁Must 100
▁unix 100
▁invol 100
▁]; 100
generic 100
▁friends 100
apk 100
-8"?> 100
bie 100
aping 100
ygote 100
▁lose 100
utations 100
'\ 100
▁Writable 100
▁retrieving 100
▁Increment 100
▁NODE 100
partner 100
▁putExtra 100
▁LinkedHashMap 100
▁Gen 100
▁mn 100
▁setB 100
warn 100
BufferSize 100
▁forgot 100
▁eng 100
▁sklearn 100
adapter 100
▁oldValue 100
▁LONG 100
▁drawn 100
▁millis 100
▁yellow 100
01234 100
▁XY 100
▁Allow 100
aussian 100
tri 100
NUM 100
DELETE 100
FIN 100
epage 100
LT 100
▁frontend 100
▁listening 100
machine 100
▁heading 100
▁Pending 100
otor 100
Plus 100
▁elim 100
Specification 100
:24 100
reply 100
.00 100
▁Private 100
guard 100
loads 100
rapy 100
▁incremental 100
Assessment 100
OTH 100
▁bring 100
▁hbase 100
▁tagName 100
▁anno 100
▁Worker 100
▁SUPER 100
▁66 100
sch 100
▁Shell 100
Gradient 100
folio 100
▁Transfer 100
▁CT 100
RIPT 100
▁setField 100
▁getShort 100
aspx 100
▁Compiler 100
▁PB 100
▁chan 100
▁11, 100
Analysis 100
izations 100
istor 100
plevel 100
uzzy 100
)): 100
"? 100
▁EE 100
Lang 100
▁guarantee 100
▁ZERO 100
▁Mail 100
iom 100
TENSION 100
▁Github 100
▁compiling 100
▁Received 100
▁builds 100
▁illust 100
▁music 100
Patient 100
(_ 100
javax 100
▁2; 100
Insensitive 100
▁camelContext 100
▁mandatory 100
▁RecyclerView 100
RouteBuilder 100
▁ram 100
className 100
▁ignite 100
Callable 100
▁Overflow 100
▁Attach 100
▁Obviously 100
Parcel 100
Workflow 100
▁getDel 100
▁APPLICATION 100
calc 100
PG 100
▁critical 100
envs 100
Bindings 100
CSS 100
▁Under 100
SW 100
▁hang 100
SHOT 100
▁elt 100
▁HTTPS 100
▁deliver 100
FIL 100
vertical 100
▁Sun 100
etition 100
aver 100
otted 100
▁apparently 100
▁Distribution 100
uda 100
▁technique 100
▁certainly 100
Marshaller 100
▁javac 100
▁fragments 100
styles 100
▁unsafe 100
▁Compute 100
▁HttpClient 100
Spi 100
pow 100
▁counters 100
Anaconda 100
illed 100
mapper 100
bf 100
Actual 100
scores 100
▁OpenCV 100
Remaining 100
schedule 100
Inputs 100
▁wkt 100
▁qname 100
▁scrapy 100
▁ThreadPool 100
▁sockets 100
-14 100
irc 100
ky 100
Zygote 100
Deleter 100
▁hive 100
▁division 100
auge 100
-1) 100
▁txn 100
quantity 100
▁particip 100
▁alternate 100
=0. 100
▁JSF 100
▁gb 100
drive 100
▁tips 100
allet 100
Criterion 100
▁effectively 100
gif 100
▁12. 100
puted 100
▁MILLISECONDS 100
▁rob 100
▁MIME 100
neg 100
▁ads 100
training 100
Containers 100
▁Mini 100
▁TProtocol 100
Charset 100
▁sup 100
▁wan 100
uro 100
▁getApp 100
RU 100
▁counting 100
Positions 100
large 100
AsStream 100
John 100
Negative 100
erg 100
▁sessionId 100
▁telling 100
prod 100
▁fly 100
zeros 100
']] 100
▁getDeclared 100
▁getEndpoint 100
aurant 100
▁CLIENT 100
▁selectors 100
ades 100
▁Opt 100
asset 100
VT 100
initialized 100
iser 100
▁guest 100
▁ugly 100
Capabilities 100
▁Year 100
▁127.0.0.1 100
:8080/ 100
tic 100
ians 100
▁onChange 100
_0_ 100
▁getPreferred 100
ForType 100
Propag 100
aphore 100
▁2] 100
FOUND 100
▁setTime 100
unknown 100
▁converts 100
▁land 100
Instant 100
Den 100
▁truth 100
Lexer 100
▁themselves 100
Sugg 100
Serialization 100
LEVEL 100
dates 100
jac 100
▁Again 100
▁classname 100
▁experi 100
▁noise 100
▁personal 100
ItemSelected 100
gap 100
▁bins 100
▁JSONException 100
▁Rx 100
▁degrees 100
▁marshal 100
▁zlib 100
shapes 100
invoice 100
wp 100
▁everytime 100
▁scrape 100
edges 100
qt 100
▁0] 100
▁backwards 100
▁FileReader 100
(4 100
Readable 100
Live 100
SETTING 100
theme 100
essaging 100
32, 100
▁outputStream 100
rief 100
Alchemy 100
Singleton 100
▁getIs 100
▁ideal 100
▁'_ 100
rofit 100
▁Span 100
▁suppress 100
authorized 100
▁setT 100
nu 100
▁(2 100
Edges 100
▁Panel 100
▁buffers 100
analy 100
▁Returns 100
▁referring 100
▁subscriber 100
imited 100
serial 100
.0" 100
▁executeQuery 100
▁"1. 100
ordinates 100
▁LinearLayout 100
▁apple 100
▁Looks 100
▁offline 100
▁collapse 100
▁community 100
▁die 100
▁passwd 100
LEFT 100
▁rnd 100
▁paper 100
▁nodeType 100
rupted 100
▁fi 100
Throws 100
▁CONNE 100
▁bugs 100
good 100
Unsigned 100
▁suggests 100
kill 100
▁apt 100
▁vectors 100
NONE 100
▁eth 100
quee 100
▁Temp 100
▁searchResponse 100
▁findAll 100
▁shards 100
▁Rpc 100
▁survey 100
▁DF 100
▁effects 100
ssh 100
▁readFrom 100
▁Publish 100
Hierarchy 100
▁advise 100
▁pic 100
▁hd 100
yyyy 100
▁realize 100
Vertical 100
▁largest 100
▁logo 100
▁benefit 100
arrays 100
MLE 100
▁Topic 100
▁marshall 100
▁columnName 100
posts 100
defined 100
▁TestAll 100
Qualifier 100
0\ 100
▁ter 100
▁PsiFile 100
:22 100
sym 100
digits 100
asl 100
apped 100
Whitespace 100
▁crop 100
.1.1 100
2.7 100
metrics 100
Balance 100
▁stylesheet 100
Working 100
▁lag 100
▁}}</ 100
Specific 100
say 100
▁symlink 100
▁respectively 100
▁cidr 100
uations 100
Evaluator 100
SerializedSize 100
▁Sem 100
▁jvm 100
▁getters 100
▁structures 100
ZygoteInit 100
1= 100
▁clusterState 100
Editable 100
▁fo 100
▁"</ 100
Actor 100
kg 100
▁Simply 100
▁enters 100
▁mvn 100
▁getIcon 100
kr 100
▁prof 100
does 100
▁polling 100
ography 100
▁') 100
▁gain 100
▁getOut 100
friend 100
▁Disk 100
DEBUG 100
Concept 100
▁getParameters 100
▁KeyValue 100
Follow 100
Tabs 100
▁probability 100
semble 100
lr 100
▁NUMBER 100
▁replay 100
▁expose 100
Der 100
▁ship 100
3</ 100
▁Animation 100
▁deque 100
▁overall 100
indexes 100
orrow 100
collections 100
▁BUILD 100
▁Public 100
▁EL 100
▁sqlalchemy 100
onclick 100
▁Metrics 100
ulary 100
phrase 100
[1]. 100
▁runTest 100
AMPLE 100
▁distributed 100
(1); 100
ADDRESS 100
Leaf 100
▁beg 100
Reporter 100
▁nsecs 100
▁dic 100
CastException 100
PATTERN 100
▁Marker 100
Rew 100
▁HAS 100
BI 100
▁401 100
Entities 100
▁Changing 100
▁stamp 100
ABC 100
▁coded 100
:01 100
▁getRel 100
balance 100
best 100
vr 100
RefCount 100
▁lowercase 100
▁monkey 100
▁kept 100
[1], 100
600 100
▁Camera 100
clicked 100
>() 100
▁?? 100
testing 100
RIGHT 100
party 100
▁gallery 100
▁fits 100
NotSupport 100
▁gp 100
▁FE 100
▁representing 100
LIB 100
▁crypt 100
▁fieldname 100
▁authenticated 100
Substit 100
▁gif 100
▁sat 100
▁tweet 100
▁errorCode 100
▁tokenize 100
ROLL 100
RequestMetrics 100
drawable 100
▁entering 100
▁insertion 100
▁optimization 100
iline 100
icol 100
MSG 100
▁platforms 100
locations 100
▁unt 100
esides 100
▁Assign 100
▁necessarily 100
Offer 100
▁2008 100
nockout 100
▁warehouse 100
▁subdir 100
▁mocker 100
▁animal 100
▁Bo 100
▁gid 100
▁leads 100
▁(2, 100
Did 100
▁CFG 100
▁contacts 100
▁interaction 100
_005 100
express 100
▁Execute 100
normalize 100
Shutdown 100
iguous 100
▁denom 100
▁Whenever 100
ymorph 100
Mer 100
hold 100
▁toUpperCase 100
▁wc 100
collapse 100
NING 100
PAGE 100
lassfish 100
▁epsilon 100
▁WOR 100
▁queues 100
aj 100
resolved 100
▁minus 100
quet 100
webdriver 100
▁customize 100
▁tex 100
wrapped 100
DEVICE 100
[]) 100
▁shorter 100
▁GitHub 100
▁sz 100
▁Mobile 100
▁denied 100
]{ 100
86_64 100
."); 100
Integ 100
▁Share 100
Minimum 100
▁xhr 100
▁38 100
▁overrides 100
▁behave 100
Observable 100
▁keystore 100
Locked 100
kl 100
rivers 100
DIS 100
▁quad 100
)), 100
alive 100
:27 100
intext 100
▁infile 100
▁Prov 100
▁Dom 100
oTime 100
nc 100
▁hasn 100
▁nativeObj 100
traction 100
pts 100
▁TreeMap 100
nr 100
weet 100
mongo 100
Printer 100
▁Tile 100
▁vote 100
WE 100
▁redund 100
▁Logical 100
cov 100
▁singletonList 100
urname 100
SyntaxError 100
gz 100
Quick 100
▁About 100
1( 100
ordinate 100
checks 100
linux 100
>/ 100
▁Sets 100
PB 100
books 100
▁dataframes 100
.4 100
recogn 100
▁getCanonical 100
▁printf 100
Cancelled 100
▁portal 100
ufact 100
▁occurrences 100
QueryBuilder 100
mgr 100
ICE 100
pixel 100
▁Scheduler 100
▁Push 100
▁pan 100
-+ 100
▁decoding 100
Sound 100
▁clue 100
▁'@ 100
Demo 100
▁JTextField 100
▁3" 100
xd 100
AK 100
▁fortios 100
orig 100
▁Fix 100
maybe 100
▁bw 100
Thrift 100
▁0], 100
▁STOP 100
servations 100
Discovery 100
%= 100
▁Elasticsearch 100
▁fixtures 100
Preferred 100
prompt 100
Deserializer 100
▁DNS 100
▁titles 100
SQLException 100
▁Created 100
▁slots 100
APSHOT 100
▁"1234 100
xt 100
▁Poly 100
▁getAs 100
▁Sync 100
▁referencing 100
eres 100
▁Background 100
revision 100
▁instantiated 100
▁mul 100
INIT 100
▁initializing 100
▁LANG 100
▁closes 100
started 100
▁Added 100
▁affected 100
▁Relation 100
▁VS 100
▁puts 100
such 100
rottle 100
-25 100
WH 100
▁pul 100
▁compact 100
▁aaa 100
▁VISIBLE 100
▁getLayout 100
Scripts 100
rant 100
▁mCurrent 100
ulo 100
▁phrase 100
▁studio 100
▁ERR 100
heritance 100
▁knowing 100
MockEndpoints 100
▁lv 100
ImageView 100
hadoop 100
unity 100
asured 100
ActionBar 100
▁cPtr 100
▁sed 100
Tracking 100
▁algorithms 100
▁scaled 100
▁tarfile 100
▁computation 100
▁Company 100
▁Namespace 100
▁Fs 100
▁Router 100
▁sav 100
▁getProcess 100
connections 100
wx 100
▁Enumeration 100
eto 100
▁Discovery 100
▁charts 100
multipart 100
▁&= 100
▁scatter 100
omp 100
▁van 100
▁54 100
contain 100
scalar 100
Parsing 100
▁trivial 100
▁dims 100
pletable 100
▁quoted 100
▁setuptools 100
▁Malformed 100
OFFSET 100
asket 100
appro 100
▁cam 100
▁[3, 100
LP 100
▁pv 100
▁itemName 100
▁lxml 100
▁presentation 100
upid 100
Toolbar 100
▁splitting 100
▁alive 100
▁gson 100
▁linalg 100
Topology 100
▁clusters 100
boxes 100
▁Leaf 100
ELEMENT 100
Representation 100
Catalog 100
▁gdata 100
▁Cipher 100
Dot 100
▁renders 100
review 100
▁Extended 100
DoesNotExist 100
CEPT 100
vance 100
classpath 100
QUAL 100
CHECK 100
▁fromString 100
EditText 100
▁coin 100
▁Upd 100
▁Score 100
'][' 100
iterable 100
▁BaseMessages 100
▁compound 100
')] 100
▁'" 100
FILTER 100
ircuit 100
▁xcode 100
guide 100
▁recon 100
mitter 100
▁getSupport 100
▁setters 100
▁typeName 100
Framework 100
hooks 100
▁{... 100
▁attempted 100
ents 100
disable 100
▁startIndex 100
ultane 100
▁(0 100
Checkpoint 100
Vm 100
▁distrib 100
▁produced 100
▁06 100
lon 100
increment 100
Hours 100
visions 100
Patch 100
[1]) 100
odash 100
aced 100
Company 100
▁vc 100
LINK 100
▁termin 100
▁Dispatch 100
▁Day 100
▁PsiExpression 100
▁302 100
▁Folder 100
▁Anaconda 100
▁supply 100
-1" 100
ibl 100
▁Deployment 100
WER 100
Generation 100
▁Tags 100
iable 100
Special 100
▁exported 100
UAGE 100
:32 100
▁belong 100
▁uploading 100
▁chmod 100
rown 100
▁collision 100
Broker 100
visibility 100
▁Dev 100
▁backing 100
notification 100
▁told 100
▁BOO 100
certificate 100
9/ 100
Requested 100
Buffers 100
ContentType 100
multip 100
▁etag 100
▁satisf 100
▁confusion 100
urse 100
▁caps 100
▁BB 100
▁stable 100
▁Results 100
▁smtp 100
PDF 100
▁classification 100
▁conj 100
Updates 100
(- 100
▁traffic 100
▁che 100
redient 100
logo 100
▁Live 100
Rotation 100
EDIT 100
Allocator 100
▁mar 100
▁Team 100
▁Sales 100
▁SHO 100
▁Priority 100
▁Tried 100
▁LayoutInflater 100
▁functools 100
sf 100
▁synchronous 100
▁toBytes 100
OrBuilder 100
255, 100
▁mirror 100
sto 100
spaces 100
Patterns 100
▁submitting 100
▁diagram 100
▁repositories 100
Controls 100
ReturnType 100
Acl 100
aterm 100
▁contr 100
▁SK 100
PARENT 100
.6 100
Pick 100
ibilities 100
▁FB 100
perform 100
xffff 100
avar 100
▁Safe 100
dummy 100
onCreate 100
dm 100
PACK 100
▁itr 100
▁regression 100
▁Redis 100
▁Sy 100
eral 100
▁vt 100
▁POJO 100
arness 100
▁Inner 100
Ipv 100
xsl 100
dog 100
firebase 100
repare 100
assigned 100
▁Additionally 100
▁Quick 100
▁overridden 100
oucher 100
▁getOffset 100
Checks 100
ypi 100
▁saves 100
prefer 100
▁Possible 100
▁"5 100
Deg 100
▁CURRENT 100
traceback 100
Fact 100
▁setBody 100
SIG 100
istrator 100
▁DEC 100
lapping 100
▁blur 100
Registered 100
▁MAN 100
▁Replay 100
pite 100
Pull 100
▁0.000 100
FERENCE 100
_10 100
▁05 100
checker 100
▁plural 100
-31 100
▁endTime 100
▁recursively 100
▁nullValue 100
bitField 100
▁joined 100
Circle 100
▁MR 100
:26 100
())) 100
clip 100
▁equality 100
:45 100
ucer 100
▁returnType 100
Quantity 100
rivileges 100
▁isPresent 100
5] 100
▁CORS 100
▁ae 100
+) 100
uplicates 100
▁consists 100
▁delim 100
▁Break 100
▁Trigger 100
▁choo 100
Hour 100
▁timeline 100
plots 100
▁03 100
▁getPl 100
deprecated 100
Slider 100
sur 100
▁sing 100
▁overlap 100
globals 100
Temporary 100
soap 100
▁extending 100
ElementException 100
▁hon 100
callable 100
▁Hop 100
▁xp 100
▁yyyy 100
Nanos 100
▁toList 100
▁effort 100
Unicode 100
Letter 100
▁NameError 100
▁tup 100
ctrl 100
Velocity 100
Urls 100
urator 100
ocode 100
into 100
▁RPC 100
▁lifecycle 100
▁TextField 100
▁illegal 100
▁plots 100
Segments 100
▁2.7. 100
▁Converting 100
Logic 100
/? 100
▁bib 100
Targets 100
there 100
▁serializers 100
▁Dig 100
Recovery 100
▁Pointer 100
▁basedir 100
▁openerp 100
▁early 100
Interfaces 100
ingu 100
▁1</ 100
ulative 100
White 100
▁Keys 100
Prober 100
▁incorrectly 100
2015 100
ama 100
bias 100
▁pri 100
ornado 100
▁inform 100
UAL 100
▁leaving 100
▁fakes 100
▁checkState 100
phase 100
27\ 100
▁IMP 100
Rectangle 100
management 100
bench 100
▁Verify 100
▁xsd 100
ByteBuffer 100
Keyword 100
Visual 100
▁love 100
vors 100
▁PrintStream 100
▁ksession 100
holders 100
ega 100
▁encaps 100
!) 100
Interpol 100
Parallel 100
Dirty 100
▁decompress 100
▁CHE 100
=/ 100
▁1000000 100
▁positional 100
mut 100
navbar 100
▁reduced 100
Try 100
32_ 100
▁vpn 100
4> 100
▁Original 100
▁revert 100
LOCATION 100
returns 100
▁vue 100
MainActivity 100
MARK 100
CharArray 100
artz 100
3.1/ 100
▁getK 100
TestHelper 100
Gap 100
▁spl 100
matched 100
▁rawdata 100
▁assumes 100
▁bld 100
ynomial 100
tensors 100
▁Numpy 100
Seed 100
64, 100
▁triangle 100
BL 100
Packages 100
via 100
▁newbie 100
istance 100
▁wind 100
gest 100
▁Navig 100
64. 100
▁cu 100
certs 100
▁SESSION 100
Ticket 100
▁increasing 100
▁getEx 100
▁Express 100
▁Master 100
:% 100
Ordered 100
getTime 100
▁hashlib 100
▁da 100
AndSet 100
▁alone 100
▁appId 100
▁Implementation 100
▁Geometry 100
manage 100
▁OBJECT 100
Bool 100
▁AsyncTask 100
material 100
Thing 100
▁addElement 100
▁fall 100
▁bz 100
coord 100
▁accel 100
▁explains 100
charAt 100
+00 100
▁dicts 100
▁tiles 100
▁ClusterState 100
dictionary 100
▁recipe 100
spot 100
▁addItem 100
▁HEADER 100
reason 100
▁getClassLoader 100
transport 100
▁scaling 100
▁indentation 100
:28 100
▁textView 100
▁linenum 100
Definitions 100
▁Parsing 100
retch 100
▁Jenkins 100
▁FOO 100
ATEG 100
▁Nothing 100
▁pressing 100
Replication 100
StartTime 100
3"> 100
Serializable 100
▁getRaw 100
▁fan 100
▁generics 100
(__ 100
secutive 100
dicts 100
mapped 100
▁1), 100
backup 100
)} 100
▁food 100
▁assertArray 100
ANNEL 100
Here 100
PASSWORD 100
▁SN 100
▁toler 100
▁RegExp 100
▁diffs 100
Chrome 100
▁Compare 100
▁schemeField 100
Retri 100
▁setUser 100
subprocess 100
▁proxies 100
▁returnValue 100
geometry 100
▁verification 100
▁PASS 100
babel 100
GT 100
*. 100
▁arraylist 100
▁PyObject 100
DecodeError 100
ilest 100
15, 100
icing 100
RequestMapping 100
xb 100
Hide 100
▁getMap 100
▁substitute 100
MAC 100
▁ceil 100
▁slic 100
()? 100
▁acceptable 100
▁lbl 100
▁credential 100
Builders 100
▁randn 100
Updater 100
▁vim 100
▁classLoader 100
employee 100
▁hexdigest 100
▁'% 100
walk 100
▁asp 100
▁YES 100
▁Sugg 100
▁Cr 100
▁developed 100
▁arm 100
▁lengths 100
▁getSt 100
▁oc 100
imators 100
▁casting 100
TestModel 100
xF 100
ixmap 100
▁inOrder 100
▁documented 100
▁setKey 100
RES 100
Terminal 100
slot 100
▁gulp 100
ValuePair 100
▁english 100
▁Checking 100
▁TLS 100
▁ignoring 100
▁}] 100
▁translated 100
▁bars 100
▁DAY 100
▁AtomicInteger 100
▁Refresh 100
apple 100
▁Details 100
ithread 100
▁spent 100
getClass 100
mong 100
▁Username 100
▁getNamespace 100
edValue 100
▁Ideally 100
▁fresh 100
htm 100
▁involved 100
▁Vcs 100
▁unsure 100
▁attachments 100
otlin 100
▁secs 100
▁alternatives 100
-19 100
▁Thing 100
▁addParameter 100
▁Seems 100
▁sibling 100
▁installer 100
SCA 100
▁succeeded 100
olt 100
Digit 100
registration 100
▁655 100
▁equation 100
▁Leg 100
▁applicable 100
Successful 100
▁density 100
▁writeObject 100
▁getI 100
▁tempor 100
Initialization 100
▁floats 100
phas 100
▁PRIMARY 100
Roll 100
▁127 100
▁writable 100
seen 100
▁clarify 100
ticks 100
▁sequential 100
▁vl 100
▁expired 100
▁transformed 100
▁strptime 100
attery 100
Yes 100
▁exercise 100
OLDER 100
▁SOURCE 100
SITE 100
keyword 100
▁100000 100
:{ 100
Scheduled 100
undred 100
▁deleg 100
networks 100
tail 100
ElementType 100
aclass 100
▁authorize 100
coded 100
▁regist 100
readLine 100
▁association 100
Escape 100
uber 100
LOBAL 100
PORTED 100
▁ACTIVE 100
▁Ge 100
▁median 100
▁Sometimes 100
eness 100
▁Include 100
tar 100
glob 100
▁solving 100
/, 100
▁ContentType 100
Tooltip 100
plist 100
▁Datanode 100
:] 100
▁guaranteed 100
Offsets 100
▁detach 100
▁phi 100
▁ticks 100
Pixels 100
-13 100
aggregate 100
Tube 100
ragments 100
▁deriv 100
▁deserialized 100
Geo 100
▁Removing 100
▁propagate 100
▁parentheses 100
▁okay 100
URATION 100
COLUMN 100
Three 100
▁isP 100
▁3' 100
Additional 100
▁interpreted 100
▁(/ 100
▁writeFieldBegin 100
▁zipfile 100
▁Terminal 100
deep 100
pyx 100
uel 100
atermark 100
▁BOOLEAN 100
Appender 100
Charm 100
AndView 100
▁utcnow 100
▁Cor 100
▁packets 100
chant 100
ansion 100
▁({ 100
▁FTP 100
decimal 100
▁dismiss 100
▁holding 100
INGLE 100
▁getSe 100
▁isActive 100
▁writeFieldEnd 100
▁simultane 100
▁ck 100
TableModel 100
▁Zone 100
▁descend 100
▁Cms 100
▁Expand 100
GroupId 100
Balancer 100
BinaryProtocol 100
Calls 100
▁late 100
▁DAO 100
▁Equal 100
▁Lazy 100
Sig 100
▁'3 100
pin 100
utoff 100
▁Collectors 100
▁52 100
alic 100
▁modname 100
▁declarations 100
------ 100
SCRIPTION 100
▁Produ 100
MetaInterface 100
Candidate 100
▁fft 100
[3 100
▁occurrence 100
Comb 100
▁Probably 100
Indexes 100
Clip 100
scheme 100
▁CamelContext 100
25, 100
priority 100
▁wp 100
▁Vec 100
▁Direction 100
▁Animal 100
iating 100
▁datum 100
▁Dictionary 100
.0/ 100
▁fav 100
▁sentences 100
▁straightforward 100
Partitions 100
▁reproduce 100
▁testcase 100
utter 100
StringBuilder 100
reload 100
keeper 100
ERR 100
PEG 100
▁calculating 100
▁ban 100
▁extremely 100
▁Recognition 100
▁baos 100
)){ 100
▁3.6 100
▁800 100
▁resid 100
▁EnumSet 100
bt 100
ahoo 100
▁DEMO 100
▁ACCESS 100
opg 100
opes 100
updates 100
Secure 100
inci 100
▁Preference 100
retry 100
cid 100
INSERT 100
youtube 100
▁obtained 100
"]; 100
ISS 100
qr 100
▁— 100
▁TreeNode 100
▁Netbeans 100
="{ 100
▁xid 100
▁concurrency 100
Curve 100
ListItem 100
▁ipsum 100
▁...: 100
▁110 100
▁Typ 100
▁nearest 100
imized 100
▁countDown 100
▁inet 100
finish 100
ATTRIBUTE 100
▁ObjectId 100
Modifiers 100
cam 100
▁43 100
front 100
▁AttributeSet 100
▁datasource 100
▁NodeList 100
▁TOK 100
cleanup 100
▁Fail 100
▁validated 100
Pad 100
zoom 100
Providers 100
▁commons 100
Rank 100
relation 100
▁market 100
MeasureSpec 100
CODING 100
▁cordova 100
▁courses 100
512 100
DEN 100
SessionFactory 100
FFIX 100
▁11. 100
▁Meteor 100
2} 100
▁getAggreg 100
ACCESS 100
":[ 100
▁Naming 100
Extended 100
▁spin 100
▁CACHE 100
Utility 100
FAIL 100
▁FLAGS 100
mag 100
VERE 100
▁47 100
.9 100
.10 100
▁0.05 100
hours 100
▁timing 100
Quota 100
▁supplier 100
▁WebView 100
IGH 100
▁handshake 100
arp 100
▁RIGHT 100
Resolution 100
▁VALID 100
>"); 100
buttons 100
supp 100
▁CHECK 100
endo 100
▁1.6 100
roles 100
▁getcwd 100
>\ 100
imitives 100
▁manipulation 100
▁chk 100
Small 100
ularity 100
▁Texture 100
developers 100
▁nom 100
▁searches 100
▁Submit 100
▁unwrap 100
▁Depending 100
oon 100
Mediator 100
▁1.7 100
▁breaking 100
▁injector 100
▁setOutput 100
▁distutils 100
Subscriber 100
▁AV 100
thing 100
▁thoughts 100
▁confidence 100
▁displayName 100
▁MED 100
▁BAD 100
▁tweak 100
▁unmarshall 100
plain 100
Cent 100
ingerprint 100
strumentation 100
▁orderBy 100
▁/></ 100
▁sympy 100
▁showIndent 100
▁wake 100
nx 100
PLAY 100
Compile 100
cases 100
Invoke 100
Viol 100
▁doubt 100
Javascript 100
HEIGHT 100
▁fetchall 100
Cart 100
▁dlg 100
▁vehicle 100
news 100
▁belongs 100
gui 100
▁53 100
▁multimap 100
▁banner 100
▁ee 100
▁spr 100
▁'1234 100
tran 100
dtemp 100
dns 100
▁assertNo 100
▁interpolation 100
▁TBinaryProtocol 100
▁getO 100
carousel 100
▁IOUtils 100
▁jsonObject 100
▁prim 100
▁SAXException 100
bn 100
.0.0. 100
have 100
▁addProperty 100
PLACE 100
Models 100
pot 100
▁dv 100
▁MetaData 100
▁Relative 100
CLIENT 100
MBean 100
▁hosted 100
▁systemId 100
▁setDescription 100
exclude 100
▁EasyMock 100
ipython 100
brev 100
▁Preferences 100
▁Te 100
▁hdr 100
Templates 100
ikit 100
stage 100
▁performs 100
:34 100
CUMENT 100
▁considering 100
ASS 100
[3] 100
▁Hadoop 100
iro 100
▁ASTNode 100
▁reducer 100
▁''; 100
▁2- 100
▁elsewhere 100
QUERY 100
▁RAM 100
▁NT 100
blocking 100
TF 100
MEDI 100
Picture 100
LF 100
▁navbar 100
AccessToken 100
▁spatial 100
▁provision 100
▁fund 100
lineno 100
▁environments 100
▁AES 100
▁graphs 100
▁"200 100
Setter 100
▁pdb 100
BUTTON 100
lets 100
uv 100
▁street 100
Aggregate 100
▁NetDevice 100
▁switching 100
▁PROPERTY 100
zA 100
▁texts 100
▁Scala 100
▁bey 100
▁memoized 100
▁Design 100
384 100
▁latin 100
attempt 100
Polygon 100
▁machines 100
▁reaches 100
▁BIGINT 100
="0 100
3.7/ 100
'^ 100
▁newName 100
bi 100
▁redirects 100
connector 100
▁Currency 100
▁recognized 100
:40 100
ycopg 100
▁thats 100
MISSION 100
▁optimized 100
▁namespaceURI 100
inality 100
nsecs 100
▁dark 100
▁ancestor 100
Notes 100
Calculator 100
sqli 100
▁getSchema 100
-% 100
Frameworks 100
=3 100
▁symm 100
▁vrf 100
What 100
▁beyond 100
Anim 100
▁FORMAT 100
ExecutorService 100
▁failUnlessEqual 100
▁mIs 100
▁BIN 100
▁Hashtable 100
▁mView 100
▁PUBLIC 100
bindings 100
▁vault 100
▁TestAllTypes 100
▁observed 100
VATE 100
/_ 100
▁Flat 100
▁Scene 100
▁"@ 100
('./ 100
calculate 100
▁eu 100
▁curious 100
▁hg 100
▁vary 100
▁social 100
▁TOP 100
mc 100
:29 100
validator 100
▁8859 100
▁2</ 100
atom 100
npm 100
hind 100
▁.2 100
▁coerce 100
bounds 100
▁TIMESTAMP 100
SCRIPT 100
▁PROJECT 100
▁ahead 100
▁getDouble 100
Watcher 100
InBackground 100
▁potentially 100
▁Workflow 100
Servers 100
▁insets 100
configs 100
OTAL 100
sections 100
/' 100
:35 100
ocks 100
gmail 100
/10 100
Cfg 100
▁ARRAY 100
Atom 100
▁Setup 100
AndVerify 100
▁tricky 100
ByKey 100
▁Define 100
▁WebElement 100
▁-1. 100
▁UInt 100
floating 100
▁getFont 100
▁serviceName 100
IndexOutOfBounds 100
InMillis 100
▁Regular 100
lng 100
▁grp 100
design 100
jboss 100
DLE 100
▁'5 100
('\ 100
ked 100
▁perms 100
Immutable 100
Symbols 100
▁stays 100
▁IMAGE 100
▁SUPERUSER 100
▁fancy 100
CAP 100
vement 100
figure 100
▁Deferred 100
lips 100
▁spacing 100
▁smallest 100
▁dropped 100
▁station 100
▁tiny 100
uetooth 100
▁TF 100
|| 100
Lost 100
▁46 100
anagers 100
▁buy 100
▁mkdtemp 100
Esc 100
OPTION 100
▁Comb 100
▁Keras 100
moz 100
▁1- 100
LEN 100
▁History 100
▁him 100
**************** 100
▁PIL 100
organ 100
IMAGE 100
qtt 100
▁Converter 100
▁urlencode 100
DY 100
▁Redirect 100
/2. 100
▁interrupted 100
▁importer 100
▁putInt 100
▁HA 100
▁RemoteException 100
▁threadPool 100
builtin 100
▁setIcon 100
▁yields 100
▁TreeSet 100
stuff 100
React 100
flavor 100
▁Aff 100
consistent 100
▁instructor 100
▁modes 100
▁RequestContext 100
arma 100
cnt 100
Tex 100
▁exportLiteral 100
▁afterwards 100
▁feat 100
gc 100
▁hw 100
▁xl 100
▁kafka 100
venv 100
▁activities 100
timezone 100
parents 100
Accel 100
iblings 100
mid 100
pay 100
ban 100
▁bid 100
▁DialogInterface 100
ocs 100
▁identifiers 100
▁aud 100
FACE 100
▁wsdl 100
HAND 100
tomcat 100
NETWORK 100
rogate 100
▁enforce 100
newInstance 100
▁redirected 100
▁Dense 100
TypeInfo 100
routes 100
pal 100
keras 100
Frequency 100
6666 100
EventQueue 100
▁ef 100
animation 100
▁getContainer 100
▁ang 100
▁asynchronously 100
▁central 100
TL 100
locals 100
▁probe 100
Startup 100
▁Though 100
▁freeze 100
Sched 100
fac 100
fw 100
Fraction 100
ointment 100
<= 100
▁bott 100
navigation 100
▁[( 100
setattr 100
▁headline 100
▁asks 100
addresses 100
Digits 100
▁movement 100
▁getTree 100
▁PART 100
▁Realm 100
HexString 100
UTC 100
IVITY 100
▁UNI 100
typ 100
ANCEL 100
COPE 100
IALIZ 100
PERATION 100
▁csr 100
▁), 100
itemap 100
ATTR 100
▁Reflection 100
▁StringWriter 100
▁simulation 100
▁Choice 100
▁colon 100
▁discovered 100
dap 100
band 100
Authority 100
▁reported 100
trip 100
MapTests 100
emit 100
▁LOAD 100
nostics 100
99999999 100
▁startDate 100
▁Sending 100
both 100
ariate 100
▁getRemote 100
getAttribute 100
▁logfile 100
dy 100
WithMock 100
▁house 100
▁vif 100
-22 100
pickle 100
▁Na 100
Coder 100
▁Completion 100
▁setA 100
prog 100
▁Pred 100
INDOW 100
▁Jupyter 100
rename 100
▁JScroll 100
closest 100
Bodies 100
▁GPU 100
▁brand 100
ErrorHandler 100
night 100
TASK 100
▁sizeof 100
chrome 100
▁IG 100
▁Retry 100
2,3 100
▁cloned 100
▁Polygon 100
▁WSGI 100
findall 100
iant 100
▁modulestore 100
▁forced 100
▁ExecutorService 100
erk 100
▁41 100
▁setQuery 100
▁authority 100
Reject 100
▁expensive 100
▁accessor 100
▁rval 100
directive 100
________________ 100
"]. 100
iques 100
147 100
inguish 100
▁addCleanup 100
">{{ 100
Face 100
▁bla 100
▁Ali 100
iations 100
▁certificates 100
between 100
▁eig 100
fk 100
existent 100
▁1.4 100
01' 100
Cells 100
SUCCESS 100
optional 100
Ascii 100
!!! 100
▁cas 100
Deleg 100
Navig 100
▁Manifest 100
▁helpers 100
catalina 100
▁cores 100
▁Scheduled 100
▁sufficient 100
>'); 100
▁MATCH 100
consumer 100
packet 100
▁ELEMENT 100
▁SQLAlchemy 100
alker 100
00000004 100
:55 100
▁inplace 100
Proc 100
Stuff 100
▁Completable 100
▁gtest 100
▁lowest 100
▁rough 100
▁ZZ 100
Vec 100
retr 100
TI 100
▁mutex 100
thumbnail 100
May 100
yl 100
Currency 100
Cover 100
IABLE 100
▁getFrom 100
INTERVAL 100
ycles 100
Poly 100
▁foot 100
']); 100
▁explo 100
▁teardown 100
(100 100
▁qt 100
▁Launch 100
▁baseline 100
Throwable 100
▁meter 100
▁getDisplayName 100
▁Light 100
▁bill 100
Hot 100
Upgrade 100
[\ 100
Refs 100
▁setParent 100
'></ 100
gateway 100
ajor 100
▁peak 100
▁prepareSearch 100
▁capi 100
visit 100
past 100
Front 100
▁Documentation 100
accounts 100
▁Slice 100
▁Weak 100
▁perspective 100
gp 100
▁Fl 100
Prob 100
▁Singleton 100
?" 100
▁GetValue 100
mix 100
▁fetchone 100
":{" 100
Then 100
Propagation 100
▁INST 100
▁setIs 100
-17 100
▁mongodb 100
▁ascending 100
▁writeByte 100
▁Month 100
▁adjac 100
▁careful 100
Expressions 100
ague 100
▁faces 100
▁JsonObject 100
Sparse 100
Pref 100
IDDLE 100
▁surround 100
▁1.8 100
icelist 100
="100 100
pipeline 100
▁dots 100
OfType 100
beros 100
2= 100
▁ha 100
▁Retri 100
▁circles 100
Green 100
Looper 100
Black 100
▁axios 100
▁mtime 100
Oracle 100
▁expiry 100
▁GONE 100
Callbacks 100
including 100
▁getWindow 100
actual 100
▁DoesNotExist 100
▁FileUtils 100
peech 100
Repeated 100
▁neighbor 100
segment 100
recognized 100
tracker 100
?, 100
STORE 100
▁rer 100
reshape 100
▁Jdbc 100
▁Items 100
▁createFile 100
Ln 100
LISH 100
▁eof 100
ried 100
typeof 100
wind 100
elling 100
▁77 100
lazy 100
orian 100
putation 100
▁getMem 100
ho 100
ologies 100
QualifiedName 100
WAY 100
Logs 100
▁1], 100
▁Conv 100
▁XMLHandler 100
ServiceImpl 100
▁webob 100
▁getCommand 100
pic 100
▁responsible 100
▁setLast 100
Reverse 100
working 100
▁varchar 100
▁disappear 100
▁teach 100
▁gene 100
▁Turn 100
BuilderFactory 100
▁relpath 100
phinx 100
Dump 100
Concurrent 100
▁bracket 100
▁jsFiddle 100
terms 100
▁grpc 100
▁AlertDialog 100
ITIVE 100
website 100
00:00:00 100
▁literals 100
▁everywhere 100
Interpreter 100
▁typeof 100
▁Loader 100
▁renamed 100
▁ham 100
Histogram 100
▁RSA 100
▁originally 100
▁realized 100
ourn 100
▁64- 100
elog 100
SUP 100
▁pyc 100
▁MockEndpoint 100
Absent 100
INET 100
.7 100
▁15, 100
AttributeValue 100
pause 100
▁Numeric 100
▁-1) 100
MethodName 100
jackson 100
▁aBuf 100
Adjust 100
QName 100
!/ 100
hy 100
ENV 100
▁programmer 100
▁firing 100
ForTesting 100
)* 100
="10 100
InProgress 100
▁troubles 100
▁terminated 100
▁3] 100
▁endDate 100
;& 100
authenticated 100
-18 100
2017 100
ols 100
ENABLED 100
character 100
▁recovery 100
▁onResume 100
▁TOKEN 100
▁Constraint 100
▁Still 100
▁!! 100
▁styling 100
▁plotting 100
Nr 100
topics 100
..... 100
▁redundant 100
▁artifactId 100
Already 100
TestUtil 100
Sizes 100
ordering 100
BIT 100
-26 100
Aspect 100
uch 100
▁confirmation 100
▁sharing 100
▁immediate 100
▁Called 100
ACL 100
▁nsec 100
▁statusCode 100
HandlerContext 100
▁nanoTime 100
fold 100
▁setInput 100
TEMPLATE 100
Plugins 100
▁WORK 100
▁isTrue 100
acer 100
Review 100
▁setLevel 100
Commun 100
izers 100
▁Managed 100
▁nextElement 100
▁getFirstChild 100
highlight 100
bootstra 100
▁commas 100
▁sticky 100
ROL 100
▁cherry 100
nextLine 100
▁StubOut 100
▁readField 100
Typed 100
▁XContentBuilder 100
Presenter 100
ato 100
▁structured 100
▁Management 100
▁:( 100
ginx 100
▁plane 100
▁hs 100
▁operands 100
▁Remember 100
▁^= 100
ividually 100
:44 100
▁convenient 100
▁stopping 100
▁scrollbar 100
▁TARGET 100
keyup 100
=10 100
domains 100
Alarm 100
Mvc 100
▁department 100
mvc 100
▁cohort 100
▁celery 100
▁slo 100
▁matrices 100
▁=" 100
Decorator 100
▁bounding 100
receive 100
received 100
▁360 100
▁insight 100
▁closer 100
qa 100
uly 100
▁Drag 100
/', 100
▁Lets 100
verrides 100
▁Price 100
Compatible 100
▁5) 100
[][] 100
BC 100
Verifier 100
icons 100
▁booleanValue 100
▁transp 100
▁weeks 100
Programs 100
:36 100
3", 100
▁"% 100
hashCode 100
▁sensitive 100
▁poor 100
Where 100
▁metavar 100
▁Ember 100
▁finishes 100
▁validators 100
▁Room 100
achable 100
evaluate 100
INE 100
Busy 100
Roots 100
clusters 100
questions 100
▁improvement 100
/3.3.1/ 100
Scalar 100
VIDER 100
▁sx 100
lated 100
▁fastbinary 100
egationToken 100
▁getNumberOf 100
pyc 100
▁*. 100
sWith 100
▁cms 100
▁replaces 100
YLE 100
cells 100
▁consumed 100
axb 100
Band 100
Appro 100
▁Ctrl 100
▁subtitle 100
▁spreadsheet 100
▁Passing 100
ChangeEvent 100
▁Couldn 100
▁pstmt 100
▁Analysis 100
▁accurate 100
▁getAnnotation 100
riven 100
▁StubOutWithMock 100
▁unchanged 100
+1) 100
▁Embedded 100
▁Identifier 100
▁FR 100
enger 100
▁subm 100
▁Additional 100
▁enh 100
positive 100
▁getPassword 100
▁OFP 100
▁fabric 100
Large 100
▁getValues 100
intercept 100
▁II 100
▁(3, 100
▁Left 100
▁;) 100
keywords 100
▁TEMPLATE 100
pf 100
INPUT 100
▁tap 100
microsoft 100
BYTES 100
▁situations 100
▁trial 100
uing 100
EventType 100
blah 100
migrate 100
compressed 100
))); 100
▁pig 100
symbols 100
▁pictures 100
▁plist 100
▁3600 100
▁variance 100
SEPARATOR 100
▁Ess 100
▁CONST 100
▁clustering 100
▁CMD 100
CellRenderer 100
▁eye 100
acion 100
gw 100
Trust 100
▁Ip 100
ToBe 100
Loss 100
NotFoundError 100
amazon 100
datepicker 100
▁shrink 100
▁createElement 100
▁grand 100
quential 100
payment 100
icipant 100
▁heavy 100
▁[[' 100
LECTION 100
pytest 100
▁hundred 100
▁Blue 100
Written 100
▁impact 100
IllegalArgument 100
▁constructed 100
CRET 100
▁trade 100
▁Dir 100
ppers 100
pane 100
=0) 100
▁Head 100
▁ou 100
hasNext 100
;</ 100
▁websites 100
Encryption 100
ModuleError 100
IMAL 100
icted 100
Directories 100
▁destroyed 100
▁treated 100
ann 100
ipes 100
veal 100
▁stupid 100
unched 100
▁policies 100
2019 100
lb 100
▁tempdir 100
▁getNumber 100
▁wide 100
▁Monitor 100
.0' 100
:38 100
▁virt 100
angularjs 100
Agg 100
astype 100
AndF 100
LACK 100
▁getModule 100
▁nature 100
trail 100
SocketFactory 100
ErrorMessage 100
▁ReplayAll 100
catalog 100
▁decrement 100
▁..., 100
LOCAL 100
folders 100
▁prefixes 100
cn 100
▁nodejs 100
▁skipping 100
▁testName 100
▁categorical 100
Cases 100
ecraft 100
▁RESOURCE 100
▁slices 100
Visit 100
▁maxSize 100
ering 100
▁StringTokenizer 100
▁bm 100
▁ASS 100
▁presence 100
TERAL 100
▁offers 100
▁Round 100
_6 100
-24 100
▁LDAP 100
▁domMap 100
▁rw 100
▁leader 100
onom 100
JUnit 100
▁angularjs 100
▁shut 100
▁ele 100
Association 100
▁Area 100
▁tolerance 100
▁FileWriter 100
PRESS 100
ework 100
▁Cheers 100
__() 100
legend 100
sid 100
▁repeating 100
bes 100
'' 100
▁Oct 100
imately 100
Captor 100
apping 100
▁bufferSize 100
OPT 100
▁binder 100
Meter 100
NDING 100
▁Mean 100
▁Ep 100
▁Reser 100
▁Highlight 100
▁Machine 100
▁jq 100
▁evaluates 100
istant 100
codepen 100
▁photos 100
..." 100
<?> 100
Tw 100
ipment 100
ntl 100
Sur 100
Flavor 100
SON 100
▁Correct 100
▁opposite 100
sched 100
▁showed 100
▁Tel 100
▁conflicts 100
▁cfs 100
ticket 100
!" 100
▁RequestMethod 100
ISTS 100
iloc 100
Parsed 100
▁Writing 100
▁FAKE 100
Delivery 100
▁keyCode 100
▁prepend 100
bash 100
▁Autom 100
▁amazonaws 100
▁endfor 100
means 100
▁circular 100
▁capturing 100
▁objective 100
Descr 100
queries 100
▁Io 100
wheel 100
▁grep 100
▁individually 100
Collision 100
▁pf 100
▁Drawable 100
▁getProtocol 100
FIED 100
Plain 100
▁clin 100
▁popular 100
Prev 100
▁MDN 100
▁nv 100
▁reasonable 100
▁urn 100
through 100
▁PyCharm 100
▁stacklevel 100
▁million 100
iso 100
eform 100
▁vel 100
▁misc 100
enode 100
ITEM 100
:37 100
IGN 100
▁{}, 100
▁Initial 100
▁Pdf 100
Projection 100
▁Coded 100
▁Secret 100
Need 100
cos 100
touch 100
clock 100
ailability 100
ORIZONT 100
PARAM 100
lood 100
▁hor 100
▁Visible 100
▁risk 100
Bi 100
▁introduced 100
▁frozenset 100
(201 100
Expired 100
Cop 100
echo 100
Configurations 100
▁wanna 100
▁xsi 100
annotations 100
properly 100
WO 100
▁Done 100
enda 100
▁setSelection 100
▁factors 100
Credential 100
▁PR 100
▁jinja 100
▁dbname 100
Conv 100
▁trees 100
zed 100
▁-1, 100
▁SCons 100
▁nu 100
ests 100
▁DATABASE 100
▁IsA 100
regorian 100
▁‘ 100
▁minimize 100
16, 100
PROCESS 100
Categories 100
▁readability 100
▁vcs 100
onus 100
▁continues 100
000" 100
estimator 100
-32 100
USTOM 100
specified 100
▁Images 100
▁ste 100
▁seemed 100
Helpers 100
▁getDomain 100
▁numerical 100
▁Exit 100
▁[0-9 100
▁Functions 100
▁10) 100
▁sandbox 100
▁sorts 100
▁50, 100
▁pts 100
ORIZONTAL 100
01/ 100
▁4: 100
!= 100
3; 100
▁.1 100
▁Headers 100
▁efficiently 100
KB 100
▁Env 100
ombre 100
Issue 100
ToolTip 100
▁srv 100
Hints 100
InstanceOf 100
▁accessToken 100
▁(. 100
Lazy 100
ForeignKey 100
▁Unix 100
-0. 100
1[ 100
▁setParameter 100
Apply 100
])) 100
-8"> 100
▁responsive 100
matcher 100
▁ctype 100
rollable 100
Business 100
rial 100
▁getStatusCode 100
Adapt 100
▁getEntry 100
lv 100
Ring 100
AML 100
IFICATION 100
▁snippets 100
LinearLayout 100
▁daily 100
▁createNew 100
▁fixes 100
▁rejected 100
Slide 100
▁Tensorflow 100
▁longest 100
QUIRED 100
tooltip 100
Built 100
Void 100
uy 100
▁HTTPError 100
▁Primitive 100
aspberry 100
▁createTemp 100
▁getOrder 100
sin 100
RESOURCE 100
▁bypass 100
▁animations 100
▁schemas 100
▁meet 100
Shader 100
▁neighbors 100
▁ol 100
▁randomInt 100
▁getCluster 100
flex 100
▁UDP 100
▁Incremental 100
Synchron 100
CamelContext 100
IFT 100
▁interceptor 100
▁synchronize 100
▁putString 100
▁dateTime 100
getContext 100
▁FILTER 100
Design 100
very 100
Injector 100
▁elems 100
▁├ 100
▁thousands 100
iam 100
▁scenarios 100
▁Secure 100
LM 100
▁getAv 100
Bootstrap 100
InBytes 100
▁parseFloat 100
IMP 100
▁tagged 100
Devices 100
Once 100
▁surpr 100
▁gradients 100
vote 100
▁COLOR 100
getItem 100
pw 100
Arn 100
XXX 100
▁SCRIPT 100
VersionUID 100
-28 100
▁activated 100
▁mor 100
appy 100
▁contexts 100
Audit 100
▁Appro 100
BYTE 100
▁depart 100
OptionsMenu 100
▁Abs 100
▁fnmatch 100
▁webservice 100
▁patches 100
▁typical 100
closing 100
▁caches 100
▁getChannel 100
▁Cordova 100
"]) 100
pcdn 100
▁Supplier 100
upgrade 100
▁capability 100
nam 100
▁Registration 100
▁Instruction 100
▁2007 100
▁liter 100
urllib 100
▁srs 100
▁Rails 100
▁locks 100
▁intention 100
ROUND 100
moment 100
3.4 100
250 100
Fully 100
▁docstring 100
▁Black 100
125 100
▁getMeta 100
▁datepicker 100
:13 100
▁onNext 100
▁Mapper 100
▁mutation 100
Conditions 100
▁Transformer 100
▁Blu 100
364 100
▁john 100
greSQL 100
▁qn 100
▁directives 100
deserialize 100
elt 100
▁WITH 100
least 100
▁StackOverflow 100
▁charmap 100
▁exclusive 100
▁Diag 100
▁weighted 100
overlay 100
▁userid 100
▁transitions 100
▁bat 100
▁addWidget 100
▁Generator 100
usc 100
MR 100
▁clickable 100
▁uppercase 100
lazz 100
▁guard 100
Inspector 100
▁hashes 100
▁testCreate 100
▁Equ 100
▁whats 100
mpeg 100
2018 100
▁63 100
▁volatile 100
ClassDef 100
▁fonts 100
}` 100
▁Asset 100
Friend 100
▁serving 100
locked 100
Inspection 100
▁Developer 100
/3/ 100
toLowerCase 100
bootstrapcdn 100
LER 100
▁± 100
"" 100
▁Selector 100
)"> 100
ATER 100
nowled 100
tel 100
workspace 100
firstName 100
geo 100
▁calculator 100
▁[2 100
health 100
▁getSc 100
eterm 100
Square 100
▁hiding 100
▁pageSize 100
▁hopefully 100
▁timestamps 100
answers 100
▁operate 100
TM 100
!</ 100
_3_ 100
▁solves 100
▁wid 100
Classpath 100
▁Calculate 100
▁downloads 100
▁Gdx 100
▁compiles 100
cers 100
▁refactor 100
▁cxx 100
.( 100
controls 100
▁parseLong 100
Catch 100
HI 100
(` 100
▁duplicated 100
$1. 100
enue 100
▁Building 100
▁regards 100
▁0.0, 100
General 100
▁jac 100
="1"> 100
▁analyse 100
Mov 100
▁kinds 100
emonic 100
▁AUTO 100
▁FO 100
▁Indexed 100
ToFile 100
EDEFAULT 100
▁JBoss 100
objs 100
CHED 100
well 100
▁endif 100
Minutes 100
webpack 100
▁Validator 100
destination 100
▁km 100
▁forever 100
▁redraw 100
▁doSomething 100
sqrt 100
▁Chunk 100
▁FLOAT 100
FailedException 100
▁SMTP 100
oi 100
ORAGE 100
blur 100
▁lng 100
▁4096 100
▁optimal 100
▁scala 100
▁startElement 100
▁autos 100
stroke 100
▁Watch 100
▁picker 100
[0]); 100
Embedded 100
obs 100
Have 100
urement 100
▁Mozilla 100
Mismatch 100
▁Hot 100
bra 100
▁incompatible 100
▁consecutive 100
MULT 100
STM 100
▁getIdentifier 100
Pojo 100
jpa 100
Assertion 100
▁population 100
Transactional 100
▁setFont 100
▁recording 100
▁agree 100
WARN 100
:49 100
Extract 100
~/ 100
▁Paths 100
192 100
Denied 100
▁ravel 100
Keyboard 100
▁restricted 100
▁disp 100
DFS 100
▁30, 100
Recipient 100
▁OPTIONS 100
▁bufsize 100
netes 100
Regions 100
▁DataInputStream 100
▁EXCEPTION 100
ubernetes 100
CONST 100
▁setObject 100
▁Explanation 100
▁getOwner 100
apon 100
▁ambig 100
▁Pi 100
▁XContentParser 100
▁JScrollPane 100
interfaces 100
▁IPython 100
▁57 100
▁parenthesis 100
vendor 100
ELDS 100
Hosts 100
closure 100
▁synchronization 100
▁maxsize 100
schools 100
▁princi 100
:56 100
▁UID 100
▁Regards 100
▁Modal 100
▁recreate 100
▁searcher 100
ups 100
edy 100
deploy 100
▁PAGE 100
▁lastModified 100
▁COR 100
Cross 100
anchor 100
▁bal 100
▁findElement 100
▁tan 100
▁expos 100
▁games 100
▁'1.1 100
erral 100
▁98 100
TestRunner 100
▁getRegion 100
▁Reset 100
UNK 100
▁creds 100
▁PROP 100
▁clipboard 100
:39 100
▁'0. 100
▁Okay 100
Configurer 100
ford 100
▁modifications 100
TITLE 100
(?: 100
▁CALL 100
▁WRITE 100
▁PsiReference 100
▁0.75 100
rammar 100
urrence 100
CommandLine 100
▁led 100
▁DROP 100
▁artifacts 100
▁ful 100
sqlite 100
▁Stats 100
ookeeper 100
ATAL 100
▁FileUtil 100
▁recipients 100
Placeholder 100
PED 100
▁Norm 100
migration 100
Rob 100
▁boo 100
▁ostream 100
▁consistency 100
▁launcher 100
fault 100
▁pitch 100
CALL 100
finder 100
getId 100
▁drawLine 100
▁getFull 100
▁useless 100
EXTENSION 100
▁MBRICK 100
Clone 100
▁misunder 100
▁corpus 100
▁extern 100
10. 100
▁WA 100
Transformation 100
dumps 100
SK 100
REN 100
▁corresponds 100
▁hh 100
▁errmsg 100
▁Usually 100
▁NumPy 100
▁Imp 100
▁"' 100
▁Solr 100
rodu 100
2016 100
▁medium 100
alog 100
measure 100
▁FORMS 100
▁xmlhttp 100
5.1 100
Blue 100
5- 100
Layers 100
don 100
▁tunnel 100
▁Offset 100
(', 100
▁med 100
▁onDestroy 100
▁nicely 100
Variant 100
eleton 100
▁getByte 100
▁pools 100
Wizard 100
▁Specifically 100
▁dos 100
▁silent 100
▁TimeZone 100
▁Jersey 100
▁listView 100
IFIER 100
▁bare 100
oser 100
▁getFormat 100
▁jsonBuilder 100
getMessage 100
filepath 100
another 100
▁FXML 100
/__ 100
Rename 100
Pay 100
▁FileStatus 100
▁cra 100
.' 100
▁Bluetooth 100
adjust 100
ISO 100
▁gpu 100
Mirror 100
nitude 100
▁Mer 100
Average 100
0: 100
CLUDE 100
0123456789 100
uniform 100
▁hp 100
▁flexible 100
AGER 100
consume 100
Executable 100
Since 100
▁draggable 100
▁estimate 100
licity 100
▁purge 100
opacity 100
eat 100
▁0.001 100
Buckets 100
▁wd 100
eps 100
▁bom 100
▁sens 100
crim 100
rend 100
Failures 100
▁toplevel 100
addon 100
▁:-) 100
OKIE 100
wrong 100
ica 100
onday 100
▁expert 100
▁Migration 100
▁simultaneously 100
Authenticator 100
▁highlighted 100
▁Schedule 100
JDK 100
▁SYSTEM 100
-27 100
Expanded 100
Slots 100
Rating 100
Pub 100
▁Lear 100
▁replicate 100
()){ 100
While 100
▁countries 100
▁TRAN 100
FL 100
DOMAIN 100
▁jupyter 100
▁Services 100
entropy 100
▁extracting 100
Resize 100
▁jid 100
Routes 100
▁abcdef 100
567 100
roject 100
Ag 100
~~ 100
zones 100
▁rsa 100
econ 100
MPLE 100
bj 100
ropped 100
▁snapshots 100
recv 100
▁Payment 100
(", 100
▁MP 100
▁exprs 100
▁setRequest 100
▁CM 100
▁UNS 100
▁energy 100
▁periods 100
ASCI 100
ouched 100
▁Kie 100
▁ViewHolder 100
▁hasMoreElements 100
▁<%= 100
▁ubuntu 100
326 100
▁getRandom 100
▁onFailure 100
▁currentTime 100
=5 100
unittest 100
▁BTW 100
SUM 100
▁stripped 100
000001 100
▁Est 100
▁descending 100
▁torrent 100
ISH 100
▁implicitly 100
gis 100
▁Stock 100
▁Old 100
dashboard 100
enty 100
▁alerts 100
▁BL 100
Compilation 100
▁13, 100
CODES 100
Deferred 100
serializer 100
32" 100
▁testSet 100
TestsFrom 100
ystrix 100
POSITION 100
▁clientId 100
▁expectedBodies 100
ponsive 100
Ports 100
GP 100
▁concatenation 100
naming 100
▁referred 100
ams 100
arange 100
▁8.0 100
Disable 100
quota 100
▁Radio 100
Outcome 100
RESPONSE 100
Union 100
alary 100
▁'+ 100
CM 100
▁discount 100
▁bf 100
nio 100
lot 100
▁ment 100
▁ground 100
STRI 100
osh 100
_404 100
▁TextUtils 100
▁exposed 100
flask 100
▁globally 100
?. 100
constants 100
3.6 100
locator 100
(0). 100
▁cancelled 100
▁invisible 100
Article 100
▁Aggregate 100
▁linspace 100
king 100
▁getBack 100
fly 100
iciency 100
▁cg 100
▁QUE 100
das 100
VoBean 100
▁unquote 100
▁NetBeans 100
:33 100
Microsoft 100
▁histo 100
ierarchical 100
Pen 100
spy 100
▁onSuccess 100
Good 100
Ax 100
compiled 100
▁investig 100
▁phys 100
▁trusted 100
▁hashed 100
▁Producer 100
▁executorService 100
▁97 100
▁SortOrder 100
elih 100
▁getQueue 100
▁apk 100
▁refreshing 100
▁Wifi 100
▁getRuntime 100
attachment 100
Known 100
▁attention 100
inventory 100
SNAPSHOT 100
▁(1) 100
▁money 100
▁Those 100
claim 100
ographic 100
unic 100
▁├── 100
▁deviceId 100
elihood 100
lax 100
alty 100
▁dirpath 100
▁addValue 100
▁getDevice 100
▁[1] 100
excel 100
atables 100
Compression 100
▁BR 100
converter 100
120 100
Shortcut 100
Invoker 100
▁Algorithm 100
▁Attr 100
▁qName 100
▁xblock 100
▁TestUtils 100
0000" 100
Toolkit 100
▁opposed 100
2222 100
also 100
keh 100
Outer 100
Checkbox 100
▁vice 100
▁anch 100
Aff 100
▁xsl 100
▁FULL 100
▁Surface 100
▁createStatement 100
▁GridLayout 100
▁relationships 100
▁UserGroup 100
wikipedia 100
▁Origin 100
ertext 100
▁Cross 100
▁"100 100
REMO 100
welcome 100
▁imageView 100
▁determined 100
tv 100
▁Ent 100
859 100
▁mbean 100
logout 100
avg 100
▁prevents 100
▁startOffset 100
serving 100
▁999 100
-29 100
▁ResponseEntity 100
Motion 100
operations 100
Pa 100
Hi 100
▁fut 100
precision 100
myapp 100
marks 100
▁QUERY 100
▁addHeader 100
▁'127.0.0.1 100
▁51 100
▁focused 100
Io 100
Corre 100
▁Persistence 100
▁CLOSE 100
▁Unique 100
:05 100
logged 100
javafx 100
twitter 100
iel 100
▁Gre 100
▁awesome 100
Org 100
Te 100
TestSuite 100
▁opencv 100
ASCII 100
▁perman 100
▁adjusted 100
▁"./ 100
▁ObjectName 100
cpus 100
queeze 100
▁fcntl 100
▁shif 100
▁incomplete 100
▁despite 100
UiThread 100
▁Regard 100
adget 100
heading 100
▁plaintext 100
Aw 100
itivity 100
▁Esb 100
010 100
▁observe 100
Profiles 100
tile 100
▁cherrypy 100
▁tracks 100
utc 100
mak 100
▁IR 100
▁coefficient 100
▁Release 100
▁Space 100
▁[4, 100
▁Inspection 100
termin 100
Indexed 100
▁attend 100
production 100
▁QQ 100
Hibernate 100
▁correlation 100
Vertices 100
▁getFileSystem 100
▁substitution 100
▁OW 100
▁Bi 100
authentication 100
(3) 100
▁fastest 100
Apps 100
onar 100
charge 100
Intercept 100
▁tbody 100
CONTEXT 100
▁requestCode 100
▁Observer 100
▁Subscription 100
__': 100
▁waits 100
▁Routing 100
SyntaxException 100
▁ciph 100
▁CDATA 100
creation 100
rootScope 100
▁Gl 100
▁ITE 100
Invoice 100
quit 100
▁PREFIX 100
▁confirmed 100
▁pkt 100
▁areas 100
▁indexName 100
▁getPlugin 100
▁Keyword 100
▁deactivate 100
▁Pa 100
▁Proto 100
ardware 100
tracking 100
HS 100
parallel 100
PRESSION 100
horizontal 100
scala 100
▁2001 100
%, 100
▁reboot 100
▁getException 100
▁mimeType 100
▁msbuild 100
:48 100
▁inherits 100
▁completes 100
000); 100
igo 100
▁HttpStatus 100
]]) 100
▁'../ 100
STER 100
▁tweets 100
▁Reason 100
▁palette 100
▁Serializer 100
eface 100
-23 100
▁facet 100
▁Essentially 100
111 100
Opened 100
ensure 100
▁multithread 100
xFFFF 100
Caller 100
ariants 100
emale 100
▁readOnly 100
trunc 100
aby 100
▁Navigation 100
▁ticker 100
__', 100
Spinner 100
Spacing 100
▁Modifier 100
▁getLeft 100
Through 100
matplotlib 100
quant 100
▁Iterables 100
▁outgoing 100
▁similarity 100
getResource 100
Logical 100
irq 100
yled 100
Rele 100
▁shader 100
funcs 100
lica 100
arc 100
jpeg 100
▁libvirt 100
▁Variables 100
Comm 100
▁Pars 100
▁heat 100
▁inserts 100
▁wf 100
lime 100
▁assumed 100
posable 100
▁PROCESS 100
▁aim 100
▁carousel 100
▁STRUCT 100
unctuation 100
LING 100
rich 100
GD 100
▁Events 100
).. 100
▁writeBytes 100
▁PID 100
▁customers 100
▁Cassandra 100
▁JobConf 100
▁Apply 100
.8 100
▁bullet 100
▁SEVERE 100
▁getAccount 100
IDENT 100
▁GR 100
▁timeit 100
▁eggs 100
▁Feb 100
CSV 100
picture 100
EMAIL 100
▁analytics 100
▁TI 100
▁involves 100
▁getTimestamp 100
-21 100
▁shop 100
▁10; 100
]" 100
FORE 100
▁grads 100
▁dyn 100
ilestone 100
esterday 100
ga 100
▁il 100
▁enrollment 100
▁getControl 100
▁blk 100
▁strongly 100
XMLSchema 100
▁lies 100
▁jp 100
paper 100
]= 100
Trim 100
▁SwingUtilities 100
Lifecycle 100
inside 100
▁togg 100
▁THREE 100
aaa 100
Poll 100
14, 100
▁ResponseBody 100
TCP 100
▁facility 100
▁reservation 100
HA 100
.3 100
arbon 100
CollectionTest 100
pull 100
INFIN 100
▁psycopg 100
▁MAC 100
TERNAL 100
Repeat 100
▁emulator 100
acs 100
▁dolor 100
▁swift 100
▁LANGUAGE 100
▁fib 100
▁EntityManager 100
adin 100
parsers 100
▁scheduling 100
▁reliable 100
▁getIntent 100
▁assessment 100
▁enclosing 100
ProcessInstance 100
▁Hdfs 100
NAMES 100
▁Javadoc 100
▁pushed 100
arwin 100
▁sees 100
▁faced 100
▁Patch 100
qp 100
imeType 100
liance 100
▁qos 100
▁jo 100
▁Compression 100
▁Branch 100
again 100
▁Fac 100
CENTER 100
lations 100
▁Primary 100
▁realpath 100
▁Interpreter 100
Stored 100
▁getPartition 100
VInt 100
▁setLocation 100
▁tls 100
Products 100
▁OPTION 100
OfWeek 100
▁#1 100
neighbors 100
LANG 100
Fast 100
▁protect 100
TICAL 100
={' 100
transfer 100
xhtml 100
Managed 100
▁Summary 100
▁gettext 100
OLL 100
HttpResponse 100
jersey 100
PART 100
Translate 100
Redirects 100
)' 100
Jdbc 100
]). 100
▁newState 100
▁sanitize 100
DisplayName 100
▁dhcp 100
▁Modify 100
Arrow 100
Construction 100
▁addView 100
baz 100
MATCH 100
Feedback 100
▁SETTING 100
DUCT 100
thumb 100
▁rfc 100
▁testAdd 100
▁MBean 100
▁race 100
LICY 100
gallery 100
▁getStorage 100
▁turtle 100
ador 100
▁suspend 100
▁getExpression 100
▁Flag 100
▁azure 100
movie 100
▁LIMIT 100
(3, 100
AndFeel 100
▁fiscal 100
▁blockSize 100
▁pie 100
foreign 100
difference 100
cycle 100
▁Ac 100
fusc 100
▁foreground 100
▁nesting 100
formatter 100
Restart 100
sensitive 100
Neg 100
:0; 100
▁hyp 100
▁newRow 100
▁narrow 100
▁PNG 100
000000000 100
kes 100
▁suit 100
different 100
>{ 100
xlsx 100
▁BufferedWriter 100
▁factories 100
▁gotten 100
linical 100
Keeper 100
together 100
▁wav 100
Resp 100
▁warm 100
opener 100
▁[(' 100
▁tenantId 100
▁Sent 100
shutdown 100
MODULE 100
▁ty 100
▁Cent 100
LABEL 100
▁byref 100
Forms 100
▁Doing 100
orted 100
▁onActivity 100
▁OGR 100
lined 100
▁BACK 100
Defs 100
▁truncated 100
Decision 100
▁rowCount 100
▁getTransaction 100
▁mf 100
ursion 100
▁DESC 100
asmine 100
▁Hex 100
▁MAV 100
cohort 100
▁Dog 100
installer 100
▁concerned 100
▁ult 100
▁THIS 100
▁carry 100
ProgressBar 100
Ajax 100
▁ig 100
TimeZone 100
▁circum 100
straints 100
itled 100
▁spect 100
▁COMMAND 100
▁ZipFile 100
▁backward 100
▁"") 100
▁zones 100
▁picked 100
()), 100
▁andReturn 100
TOM 100
▁futures 100
▁rss 100
▁LC 100
FAILED 100
Attempts 100
▁incrementAndGet 100
ernary 100
▁deck 100
Duplicate 100
micro 100
▁Third 100
▁associate 100
▁16, 100
reject 100
▁summar 100
▁ipython 100
▁possibilities 100
▁ImmutableSorted 100
CURRENT 100
BadRequest 100
querySelectorAll 100
abb 100
▁elasticsearch 100
EXEC 100
pear 100
helpers 100
("% 100
perms 100
▁skin 100
Mesh 100
▁[...] 100
([1, 100
▁membership 100
▁prefetch 100
▁\\\\ 100
▁Pick 100
STable 100
▁assumption 100
Footer 100
▁Hand 100
▁Circle 100
aliases 100
HH 100
unpack 100
▁yours 100
▁inactive 100
(12 100
▁Cached 100
▁ENG 100
▁rol 100
AMS 100
Injection 100
asList 100
ugment 100
▁"[ 100
requirements 100
▁setContext 100
▁mobj 100
▁XMLStream 100
TestData 100
articles 100
▁branches 100
▁tablename 100
nonzero 100
classList 100
▁satisfied 100
joint 100
▁weekday 100
▁Commun 100
▁scm 100
▁gcc 100
KeyValue 100
▁assertHTML 100
▁committed 100
▁sublist 100
24, 100
▁LIB 100
offer 100
▁cw 100
BINARY 100
▁cgi 100
vocab 100
▁braces 100
Pipe 100
Collections 100
▁getExtension 100
▁Smart 100
▁TASK 100
BAR 100
atural 100
ufacturer 100
▁mongoose 100
Spaces 100
visual 100
▁jc 100
▁protocols 100
▁scripting 100
▁Assignment 100
TIES 100
RefVo 100
▁precedence 100
▁resultCode 100
Stock 100
▁matters 100
▁TypeScript 100
▁Pres 100
1"). 100
ulates 100
▁favorite 100
vh 100
▁ReferenceError 100
▁countdown 100
▁lf 100
▁getGlobal 100
▁Improperly 100
Tax 100
▁noted 100
bmc 100
/2001/ 100
▁Furthermore 100
▁descriptors 100
▁plat 100
▁JC 100
PIO 100
▁RUNNING 100
Grant 100
Restore 100
▁EP 100
▁tow 100
▁STREAM 100
oji 100
▁restrictions 100
▁Ow 100
RequestHandler 100
▁Serialization 100
▁executeUpdate 100
▁shot 100
▁workbook 100
executable 100
▁setUpClass 100
dimensional 100
▁triggering 100
▁VIEW 100
Returns 100
await 100
About 100
▁getFilter 100
▁SOL 100
▁ARG 100
▁learned 100
▁lu 100
relevant 100
LayoutParams 100
whitespace 100
▁SOCK 100
▁Signal 100
Prepare 100
▁grey 100
▁addComponent 100
▁readBytes 100
▁nextPage 100
ancial 100
▁vv 100
Counters 100
▁forwards 100
Raster 100
csrf 100
▁latency 100
bank 100
Claim 100
▁[{' 100
▁multiplication 100
iner 100
▁Descriptors 100
▁Extra 100
▁204 100
elf 100
▁enums 100
▁Actual 100
Wildcard 100
=4 100
construct 100
IfAbsent 100
Errno 100
▁[0. 100
▁Works 100
verbose 100
▁TaskAttempt 100
▁newNode 100
Coding 100
easy 100
▁intf 100
▁indexer 100
▁BeforeClass 100
▁Pub 100
▁XmlElement 100
Relationship 100
widgets 100
▁assignments 100
▁recycle 100
Contin 100
50" 100
▁sake 100
▁theory 100
▁scoped 100
OnUiThread 100
▁Fort 100
▁groupName 100
▁navigator 100
▁LINK 100
Weights 100
(': 100
Closing 100
▁animated 100
BufferException 100
▁construction 100
Coordinate 100
iversity 100
▁Pay 100
▁IDENT 100
Repos 100
moid 100
▁Ui 100
▁ib 100
01" 100
▁towards 100
▁deletion 100
getData 100
▁cascade 100
0,0 100
▁PASSWORD 100
Bug 100
▁Aggregation 100
▁isVisible 100
izza 100
iters 100
▁busy 100
▁getAd 100
▁getScheme 100
▁Actions 100
matching 100
orated 100
▁ThreadLocal 100
▁hub 100
▁Popup 100
▁IGNO 100
▁kivy 100
phem 100
▁Rot 100
▁motion 100
NCE 100
▁paintComponent 100
▁Flash 100
Ancestor 100
DOUT 100
▁sms 100
▁redux 100
uary 100
spacing 100
2), 100
▁'') 100
Weather 100
Coordinates 100
EventHandler 100
assuming 100
DispatchThread 100
▁kb 100
ACTIVE 100
▁difficulty 100
ETIME 100
▁SS 100
Envelope 100
▁fromstring 100
▁Movie 100
aptcha 100
200, 100
RDD 100
icated 100
rer 100
▁cmap 100
▁0), 100
▁2005 100
▁Sensor 100
Recorder 100
ToRemove 100
▁distinguish 100
▁PARAM 100
restore 100
guess 100
VD 100
▁NORMAL 100
▁Hopefully 100
shop 100
▁sidebar 100
UnknownFields 100
2,3,4, 100
▁templateUrl 100
izz 100
ashion 100
▁mAdapter 100
legacy 100
▁shorten 100
▁Collision 100
upp 100
AccessorTable 100
▁Making 100
▁72 100
MessageType 100
▁xi 100
▁streamId 100
▁itemView 100
▁newlines 100
▁ho 100
▁ModelAndView 100
PIC 100
bon 100
Delimiter 100
▁formData 100
▁quickfix 100
▁writeLong 100
brand 100
/) 100
▁parentNode 100
▁rolling 100
balancer 100
pref 100
Vals 100
▁"127.0.0.1 100
terminal 100
▁getInfo 100
▁getCustom 100
Icons 100
▁apart 100
▁fixing 100
▁makeText 100
EXIT 100
dated 100
cestors 100
readable 100
▁8080 100
▁trainable 100
▁introduce 100
edelta 100
▁Robot 100
▁getSign 100
▁requestBody 100
Ant 100
▁Complete 100
▁silly 100
Statements 100
separator 100
Coords 100
▁getMetadata 100
▁inode 100
bal 100
Maker 100
▁universal 100
There 100
▁globs 100
Aliases 100
INFINITY 100
▁isolated 100
▁TensorFlow 100
▁Concept 100
deb 100
swap 100
▁goto 100
udge 100
▁friendly 100
▁incr 100
▁webView 100
FirstName 100
▁getenv 100
Pi 100
▁exits 100
successful 100
DESC 100
▁YouTube 100
▁voucher 100
▁assertHTMLEqual 100
{' 100
▁67 100
slow 100
▁Conditional 100
▁boundaries 100
▁getUsername 100
▁sam 100
▁Firstly 100
▁drawer 100
▁GO 100
▁Programming 100
major 100
PECTED 100
▁INF 100
▁PYTHONPATH 100
LITY 100
▁babel 100
▁Inc 100
▁ofproto 100
▁Joda 100
^^ 100
Ker 100
Boundary 100
pline 100
limited 100
▁lm 100
jvm 100
▁dct 100
icky 100
▁TS 100
▁filling 100
Recursive 100
▁95 100
▁atoms 100
▁tpl 100
▁eventType 100
▁attributeName 100
brid 100
ometer 100
TargetException 100
▁REP 100
ORITY 100
▁96 100
▁releases 100
ulse 100
▁BytesRef 100
▁MBRICKLET 100
▁getCell 100
▁maintenance 100
workers 100
rotate 100
culation 100
▁AnsibleError 100
▁automate 100
MF 100
3.5/ 100
▁webview 100
▁barcode 100
ained 100
▁stacktrace 100
▁BYTE 100
▁inefficient 100
2). 100
//////// 100
getProperty 100
IFY 100
▁PostgreSQL 100
Lead 100
oused 100
▁cleared 100
attrib 100
▁hl 100
▁exceeded 100
▁HERE 100
▁Atom 100
▁IT 100
handshake 100
▁lineNumber 100
▁Disable 100
.1, 100
ygwin 100
▁bundles 100
▁analytic 100
▁brief 100
▁2006 100
CallExpression 100
Bulk 100
▁sampling 100
1': 100
▁Params 100
▁elect 100
▁getCre 100
imgur 100
▁decomp 100
criptions 100
loom 100
▁DOWN 100
accur 100
▁Netty 100
Sizer 100
*** 100
▁evaluator 100
▁processors 100
▁getZ 100
decorator 100
appengine 100
emat 100
▁assertNum 100
▁DateFormat 100
FoundError 100
▁getEditor 100
Sto 100
▁placing 100
11. 100
ena 100
forum 100
RESHOLD 100
enses 100
▁criterion 100
Attrib 100
▁getBuild 100
▁procurement 100
▁pname 100
ircular 100
AINER 100
Facet 100
▁filelist 100
Proposal 100
ADATA 100
Guard 100
▁Cmd 100
ATIONS 100
isEmpty 100
▁chose 100
▁dh 100
▁EGL 100
▁Characters 100
▁ORM 100
decl 100
Reducer 100
removed 100
▁du 100
▁cname 100
ki 100
▁endElement 100
▁Distributed 100
▁anaconda 100
mas 100
▁robust 100
Factories 100
checkpoint 100
▁getContaining 100
subscri 100
subclass 100
▁cub 100
▁2.2 100
Deploy 100
▁TC 100
▁Downloading 100
ranges 100
▁Msg 100
▁bandwidth 100
▁Updating 100
requires 100
▁getReference 100
▁distances 100
THER 100
▁rdf 100
▁curses 100
▁isLog 100
▁nf 100
▁SHOW 100
▁gw 100
▁7.0 100
▁onPost 100
▁scre 100
▁HBase 100
▁getUri 100
▁Reil 100
KeySpec 100
umulator 100
▁entityManager 100
▁jenkins 100
▁"; 100
▁decorated 100
▁translations 100
getJSON 100
tas 100
postgres 100
▁aligned 100
oct 100
▁prices 100
▁popen 100
▁2), 100
pto 100
▁prem 100
▁particularly 100
▁ROW 100
▁componentDid 100
▁KettleException 100
▁RequestMapping 100
san 100
▁authorized 100
▁Unless 100
▁Information 100
dirty 100
▁Elements 100
▁unknownFields 100
▁Insets 100
SUFFIX 100
▁Forward 100
▁Combo 100
Percentage 100
▁abcd 100
UNIT 100
▁getDoc 100
▁monitoring 100
Ren 100
inistic 100
LC 100
Dimensions 100
OLLOW 100
▁getItems 100
ULE 100
assignment 100
ivariate 100
▁proposal 100
▁byteArray 100
ViewModel 100
Presentation 100
▁webserver 100
==' 100
▁#2 100
▁markdown 100
▁isFile 100
▁Review 100
▁grou 100
▁clinical 100
▁inclusive 100
▁expanduser 100
prime 100
▁Sym 100
subset 100
▁lookahead 100
itro 100
▁legal 100
ldb 100
==" 100
fact 100
▁Bulk 100
Explicit 100
Equality 100
▁Small 100
syntax 100
average 100
paste 100
▁86 100
▁epochs 100
Levels 100
delitem 100
▁rl 100
▁myList 100
ogus 100
2.5 100
viewport 100
Violation 100
▁Health 100
▁typo 100
▁Qual 100
▁raster 100
ToInt 100
Handling 100
ANGED 100
▁Scale 100
acao 100
JAVA 100
▁HOME 100
mongodb 100
dden 100
ONENT 100
▁rare 100
FRAME 100
▁ALI 100
▁Business 100
▁played 100
documentation 100
▁Better 100
starter 100
▁SUM 100
minus 100
SEC 100
Expiration 100
CHO 100
▁Prom 100
mov 100
]), 100
USTER 100
▁Jetty 100
▁builtins 100
defs 100
▁SearchResponse 100
▁JAXBElement 100
CALE 100
pher 100
Absolute 100
antics 100
▁seperate 100
Capability 100
ein 100
▁resized 100
▁containsString 100
Recon 100
Too 100
▁nw 100
Multipart 100
goal 100
▁edu 100
hib 100
Brick 100
GA 100
▁Too 100
▁measurement 100
▁newChild 100
:00" 100
▁cities 100
below 100
dem 100
$', 100
▁managers 100
▁routine 100
▁WSDL 100
▁getTop 100
rict 100
▁httpClient 100
APPLICATION 100
▁night 100
▁SHORT 100
▁processInstance 100
*( 100
▁NON 100
▁campaign 100
▁ttype 100
bold 100
modify 100
sil 100
▁onStart 100
▁ADMIN 100
▁directions 100
userId 100
buff 100
▁getDatabase 100
Wheel 100
▁crawler 100
▁LocalDateTime 100
▁Std 100
▁MONTH 100
Sessions 100
▁verifier 100
▁grace 100
tenant 100
▁argtypes 100
Replacement 100
337 100
▁saver 100
Tail 100
rent 100
▁cook 100
Replica 100
Spot 100
▁MEDIA 100
▁Terms 100
Contacts 100
mouseover 100
▁employees 100
▁TOTAL 100
▁VK 100
▁sch 100
▁50%; 100
▁divmod 100
▁2], 100
▁grd 100
▁maxlength 100
csr 100
Reports 100
▁lyr 100
TouchEvent 100
Regression 100
▁EXP 100
▁Rather 100
peak 100
▁txid 100
▁Bob 100
4', 100
▁-1; 100
▁former 100
FROM 100
▁3], 100
ago 100
Colour 100
Emp 100
Signed 100
---------- 100
▁twisted 100
▁primitives 100
▁fed 100
Mobile 100
occ 100
Met 100
Positive 100
▁uploader 100
▁flavors 100
ebrew 100
▁EVT 100
completed 100
ENTRY 100
Handshake 100
ighbor 100
▁subst 100
▁profiler 100
kv 100
straction 100
▁CD 100
2[ 100
Lambda 100
▁elev 100
FileType 100
ategies 100
UnderTest 100
evt 100
ToAdd 100
aware 100
today 100
▁vanilla 100
▁accumulator 100
OUR 100
▁MQ 100
▁specifies 100
3.5 100
▁isS 100
_1. 100
iko 100
▁detector 100
▁RFC 100
700 100
▁Authentic 100
ANK 100
\", 100
scr 100
▁UserFactory 100
Iss 100
Typ 100
▁predicted 100
▁Crypto 100
▁pojo 100
chk 100
needed 100
▁xc 100
icolon 100
▁1.3 100
▁debit 100
▁hitting 100
0000000000000000 100
filled 100
▁Principal 100
▁QApplication 100
▁messy 100
▁(3 100
minutes 100
▁58 100
Dead 100
▁outputFile 100
scaled 100
▁234 100
▁circuit 100
▁Distance 100
▁SINGLE 100
exchange 100
quotes 100
Star 100
▁amet 100
Inverse 100
▁webkit 100
▁FIRST 100
Altern 100
▁targetDepth 100
Cpu 100
▁<- 100
▁variants 100
▁setBorder 100
▁ru 100
paced 100
urb 100
Interpolator 100
▁msgid 100
▁sides 100
regorianCalendar 100
Ten 100
ala 100
peo 100
contin 100
tuples 100
Recent 100
▁DataSet 100
▁nth 100
▁vn 100
Ge 100
000) 100
▁bitcoin 100
MONTH 100
▁pix 100
▁assertList 100
▁reconnect 100
Emitter 100
▁CAP 100
Maximum 100
phanum 100
PARAMETER 100
▁BUTTON 100
cussion 100
mitted 100
"/ 100
REGEX 100
▁portlet 100
/12 100
although 100
▁beam 100
▁isOpen 100
▁tensors 100
▁Modified 100
▁getOutputStream 100
32. 100
▁addCriterion 100
▁getExecution 100
▁certs 100
Gesture 100
▁Air 100
ymorphic 100
prec 100
idi 100
lee 100
Quiet 100
scaler 100
▁isdigit 100
etag 100
▁Scalar 100
▁WAR 100
▁Notify 100
>${ 100
rator 100
▁WriteLn 100
▁whitelist 100
:[ 100
SCHEMA 100
▁jms 100
4</ 100
Django 100
=". 100
anies 100
▁homepage 100
="+ 100
hh 100
▁prepareIndex 100
▁getRule 100
▁(2) 100
▁precise 100
▁CK 100
Autom 100
[...]
